{
  "version": "1.0",
  "truncation": null,
  "padding": null,
  "added_tokens": [
    {
      "id": 0,
      "content": "<|bos|>",
      "single_word": false,
      "lstrip": false,
      "rstrip": false,
      "normalized": false,
      "special": true
    },
    {
      "id": 1,
      "content": "<|eos|>",
      "single_word": false,
      "lstrip": false,
      "rstrip": false,
      "normalized": false,
      "special": true
    },
    {
      "id": 2,
      "content": "<|pad|>",
      "single_word": false,
      "lstrip": false,
      "rstrip": false,
      "normalized": false,
      "special": true
    }
  ],
  "normalizer": null,
  "pre_tokenizer": {
    "type": "Sequence",
    "pretokenizers": [
      {
        "type": "Split",
        "pattern": {
          "Regex": "'(?i:[sdmt]|ll|ve|re)|[^\\r\\n\\p{L}\\p{N}]?+\\p{L}+|\\p{N}{1,2}|,| ?[^\\s\\p{L}\\p{N},]++[\\r\\n]*|\\s*[\\r\\n]|\\s+(?!\\S)|\\s+"
        },
        "behavior": "Isolated",
        "invert": false
      },
      {
        "type": "ByteLevel",
        "add_prefix_space": false,
        "trim_offsets": true,
        "use_regex": false
      }
    ]
  },
  "post_processor": null,
  "decoder": {
    "type": "ByteLevel",
    "add_prefix_space": true,
    "trim_offsets": true,
    "use_regex": true
  },
  "model": {
    "type": "BPE",
    "dropout": null,
    "unk_token": null,
    "continuing_subword_prefix": null,
    "end_of_word_suffix": null,
    "fuse_unk": false,
    "byte_fallback": true,
    "ignore_merges": false,
    "vocab": {
      "<|bos|>": 0,
      "<|eos|>": 1,
      "<|pad|>": 2,
      "!": 3,
      "\"": 4,
      "#": 5,
      "$": 6,
      "%": 7,
      "&": 8,
      "'": 9,
      "(": 10,
      ")": 11,
      "*": 12,
      "+": 13,
      ",": 14,
      "-": 15,
      ".": 16,
      "/": 17,
      "0": 18,
      "1": 19,
      "2": 20,
      "3": 21,
      "4": 22,
      "5": 23,
      "6": 24,
      "7": 25,
      "8": 26,
      "9": 27,
      ":": 28,
      ";": 29,
      "<": 30,
      "=": 31,
      ">": 32,
      "?": 33,
      "@": 34,
      "A": 35,
      "B": 36,
      "C": 37,
      "D": 38,
      "E": 39,
      "F": 40,
      "G": 41,
      "H": 42,
      "I": 43,
      "J": 44,
      "K": 45,
      "L": 46,
      "M": 47,
      "N": 48,
      "O": 49,
      "P": 50,
      "Q": 51,
      "R": 52,
      "S": 53,
      "T": 54,
      "U": 55,
      "V": 56,
      "W": 57,
      "X": 58,
      "Y": 59,
      "Z": 60,
      "[": 61,
      "\\": 62,
      "]": 63,
      "^": 64,
      "_": 65,
      "`": 66,
      "a": 67,
      "b": 68,
      "c": 69,
      "d": 70,
      "e": 71,
      "f": 72,
      "g": 73,
      "h": 74,
      "i": 75,
      "j": 76,
      "k": 77,
      "l": 78,
      "m": 79,
      "n": 80,
      "o": 81,
      "p": 82,
      "q": 83,
      "r": 84,
      "s": 85,
      "t": 86,
      "u": 87,
      "v": 88,
      "w": 89,
      "x": 90,
      "y": 91,
      "z": 92,
      "{": 93,
      "|": 94,
      "}": 95,
      "~": 96,
      "¡": 97,
      "¢": 98,
      "£": 99,
      "¤": 100,
      "¥": 101,
      "¦": 102,
      "§": 103,
      "¨": 104,
      "©": 105,
      "ª": 106,
      "«": 107,
      "¬": 108,
      "®": 109,
      "¯": 110,
      "°": 111,
      "±": 112,
      "²": 113,
      "³": 114,
      "´": 115,
      "µ": 116,
      "¶": 117,
      "·": 118,
      "¸": 119,
      "¹": 120,
      "º": 121,
      "»": 122,
      "¼": 123,
      "½": 124,
      "¾": 125,
      "¿": 126,
      "À": 127,
      "Á": 128,
      "Â": 129,
      "Ã": 130,
      "Ä": 131,
      "Å": 132,
      "Æ": 133,
      "Ç": 134,
      "È": 135,
      "É": 136,
      "Ê": 137,
      "Ë": 138,
      "Ì": 139,
      "Í": 140,
      "Î": 141,
      "Ï": 142,
      "Ð": 143,
      "Ñ": 144,
      "Ò": 145,
      "Ó": 146,
      "Ô": 147,
      "Õ": 148,
      "Ö": 149,
      "×": 150,
      "Ø": 151,
      "Ù": 152,
      "Ú": 153,
      "Û": 154,
      "Ü": 155,
      "Ý": 156,
      "Þ": 157,
      "ß": 158,
      "à": 159,
      "á": 160,
      "â": 161,
      "ã": 162,
      "ä": 163,
      "å": 164,
      "æ": 165,
      "ç": 166,
      "è": 167,
      "é": 168,
      "ê": 169,
      "ë": 170,
      "ì": 171,
      "í": 172,
      "î": 173,
      "ï": 174,
      "ð": 175,
      "ñ": 176,
      "ò": 177,
      "ó": 178,
      "ô": 179,
      "õ": 180,
      "ö": 181,
      "÷": 182,
      "ø": 183,
      "ù": 184,
      "ú": 185,
      "û": 186,
      "ü": 187,
      "ý": 188,
      "þ": 189,
      "ÿ": 190,
      "Ā": 191,
      "ā": 192,
      "Ă": 193,
      "ă": 194,
      "Ą": 195,
      "ą": 196,
      "Ć": 197,
      "ć": 198,
      "Ĉ": 199,
      "ĉ": 200,
      "Ċ": 201,
      "ċ": 202,
      "Č": 203,
      "č": 204,
      "Ď": 205,
      "ď": 206,
      "Đ": 207,
      "đ": 208,
      "Ē": 209,
      "ē": 210,
      "Ĕ": 211,
      "ĕ": 212,
      "Ė": 213,
      "ė": 214,
      "Ę": 215,
      "ę": 216,
      "Ě": 217,
      "ě": 218,
      "Ĝ": 219,
      "ĝ": 220,
      "Ğ": 221,
      "ğ": 222,
      "Ġ": 223,
      "ġ": 224,
      "Ģ": 225,
      "ģ": 226,
      "Ĥ": 227,
      "ĥ": 228,
      "Ħ": 229,
      "ħ": 230,
      "Ĩ": 231,
      "ĩ": 232,
      "Ī": 233,
      "ī": 234,
      "Ĭ": 235,
      "ĭ": 236,
      "Į": 237,
      "į": 238,
      "İ": 239,
      "ı": 240,
      "Ĳ": 241,
      "ĳ": 242,
      "Ĵ": 243,
      "ĵ": 244,
      "Ķ": 245,
      "ķ": 246,
      "ĸ": 247,
      "Ĺ": 248,
      "ĺ": 249,
      "Ļ": 250,
      "ļ": 251,
      "Ľ": 252,
      "ľ": 253,
      "Ŀ": 254,
      "ŀ": 255,
      "Ł": 256,
      "ł": 257,
      "Ń": 258,
      "ÃŃ": 259,
      "Ã¡": 260,
      "Ġp": 261,
      "Ġs": 262,
      "Ġv": 263,
      "ÄĽ": 264,
      "Ã©": 265,
      "st": 266,
      "nÃŃ": 267,
      "ro": 268,
      "ÅĻ": 269,
      "Ġn": 270,
      "ch": 271,
      "ov": 272,
      "Ã½": 273,
      "Ġa": 274,
      "Ġz": 275,
      "Äį": 276,
      "Å¾": 277,
      "en": 278,
      "ra": 279,
      "Ġk": 280,
      "Ġo": 281,
      "le": 282,
      "Ġd": 283,
      "Ġj": 284,
      "la": 285,
      "Å¡": 286,
      "ou": 287,
      "te": 288,
      "sk": 289,
      "li": 290,
      "ce": 291,
      "Ġm": 292,
      "ho": 293,
      "Ġpo": 294,
      "in": 295,
      "Ġb": 296,
      "Ġt": 297,
      "Å¯": 298,
      "Ġna": 299,
      "an": 300,
      "Ġse": 301,
      "ÅĻe": 302,
      "Ġje": 303,
      "lo": 304,
      "em": 305,
      "er": 306,
      "al": 307,
      "to": 308,
      "Ġro": 309,
      "na": 310,
      "ak": 311,
      "nÄĽ": 312,
      "ni": 313,
      "Ġdo": 314,
      "Ġ(": 315,
      "rÃ¡": 316,
      "ck": 317,
      "ti": 318,
      "ri": 319,
      "ku": 320,
      "ÅĻÃŃ": 321,
      "on": 322,
      "ka": 323,
      "Ġpro": 324,
      "Ġne": 325,
      "no": 326,
      "ĠS": 327,
      "Ã½ch": 328,
      "Ġby": 329,
      "re": 330,
      "Ġst": 331,
      "Âł": 332,
      "ĠÄį": 333,
      "19": 334,
      "ci": 335,
      "âĢ": 336,
      "va": 337,
      "od": 338,
      "ĠĠ": 339,
      "ĠP": 340,
      "ru": 341,
      "Ġza": 342,
      "Ġu": 343,
      "skÃ©": 344,
      "il": 345,
      "cÃŃ": 346,
      "el": 347,
      "Ġh": 348,
      "ar": 349,
      "ĠM": 350,
      "Ġob": 351,
      "jÃŃ": 352,
      "Ġvy": 353,
      "ky": 354,
      "je": 355,
      "po": 356,
      "ter": 357,
      "at": 358,
      "de": 359,
      "Å¡ÃŃ": 360,
      "it": 361,
      "ÅĻi": 362,
      "mi": 363,
      "Ġod": 364,
      "or": 365,
      "ĠB": 366,
      "nÃ©": 367,
      "ad": 368,
      "ze": 369,
      "sti": 370,
      "Ġve": 371,
      "vo": 372,
      "ĠpÅĻe": 373,
      "ĠK": 374,
      "Å¾e": 375,
      "ĠA": 376,
      "20": 377,
      "vÄĽ": 378,
      "ĠÃ": 379,
      "lÃ¡": 380,
      "ovÃ¡": 381,
      "âĢĵ": 382,
      "Ġf": 383,
      "ob": 384,
      "lu": 385,
      "av": 386,
      "tu": 387,
      "ko": 388,
      "tÃŃ": 389,
      "ĠV": 390,
      "nÃ¡": 391,
      "ovÃ©": 392,
      "mu": 393,
      "ĠN": 394,
      "se": 395,
      "ĠR": 396,
      "Ã¡l": 397,
      "ta": 398,
      "Ġbyl": 399,
      "ĠJ": 400,
      "dy": 401,
      "mÄĽ": 402,
      "ĠL": 403,
      "ĠÃº": 404,
      "Ġle": 405,
      "ĠH": 406,
      "ckÃ©": 407,
      "ĠzÃ¡": 408,
      "ĠT": 409,
      "vÃ¡": 410,
      "ĠnÃ¡": 411,
      "dÄĽ": 412,
      "vÃŃ": 413,
      "di": 414,
      "ĠvÃ½": 415,
      "nÃŃm": 416,
      "ĠC": 417,
      "Ã½m": 418,
      "da": 419,
      "ne": 420,
      "ĠD": 421,
      "tÄĽ": 422,
      "Ġkter": 423,
      "Ġi": 424,
      "bo": 425,
      "lov": 426,
      "Ġroce": 427,
      "Ġko": 428,
      "is": 429,
      "Ġpod": 430,
      "ĠE": 431,
      "zi": 432,
      "ji": 433,
      "ĠâĢĵ": 434,
      "Ġjak": 435,
      "sto": 436,
      "vnÃŃ": 437,
      "ÄĮ": 438,
      "ĠF": 439,
      "mo": 440,
      "me": 441,
      "ry": 442,
      "du": 443,
      "ny": 444,
      "ĠmÄĽ": 445,
      "nu": 446,
      "ova": 447,
      "ĠpÅĻi": 448,
      "Å¾i": 449,
      "ve": 450,
      "by": 451,
      "vi": 452,
      "Ġre": 453,
      "Å¡e": 454,
      "ty": 455,
      "as": 456,
      "ĠO": 457,
      "ĠI": 458,
      "Ġjako": 459,
      "Ġtak": 460,
      "dnÃŃ": 461,
      "men": 462,
      "zy": 463,
      "ĠpÅĻÃŃ": 464,
      "bu": 465,
      "tel": 466,
      "Ġroz": 467,
      "Ġroku": 468,
      "rÅ¯": 469,
      "ma": 470,
      "Äįe": 471,
      "ĠÄĮ": 472,
      "Ġe": 473,
      "Ġjed": 474,
      "Å¾ÃŃ": 475,
      "Ġli": 476,
      "Ġsv": 477,
      "Ġto": 478,
      "||": 479,
      "skÃ½": 480,
      "ly": 481,
      "kla": 482,
      "Ġspo": 483,
      "lÃŃ": 484,
      ").": 485,
      "18": 486,
      "ĠnÄĽ": 487,
      "jÃŃcÃŃ": 488,
      "ĠG": 489,
      "sou": 490,
      "sa": 491,
      "ran": 492,
      "ĠÅ¾e": 493,
      "pe": 494,
      "sta": 495,
      "Ġmo": 496,
      "Ġte": 497,
      "ĠÅ": 498,
      "dÃ¡": 499,
      "Ã©ho": 500,
      "nÃ½": 501,
      "up": 502,
      "zna": 503,
      "Ġme": 504,
      "Ġc": 505,
      "ÄįnÃŃ": 506,
      "kÃ¡": 507,
      "Ġho": 508,
      "uje": 509,
      "Ġsou": 510,
      "ha": 511,
      "Ġbyla": 512,
      "si": 513,
      "ol": 514,
      "Ġkon": 515,
      "gi": 516,
      "ÅĪ": 517,
      "rov": 518,
      "skÃ©ho": 519,
      "Ã¡t": 520,
      "Ġnej": 521,
      "pad": 522,
      "nost": 523,
      "ĠÅ¡": 524,
      "kon": 525,
      "Ġka": 526,
      "Ġvz": 527,
      "stvÃŃ": 528,
      "pra": 529,
      "lÃ©": 530,
      "oval": 531,
      "ĠvÄĽ": 532,
      "stav": 533,
      "ud": 534,
      "bÄĽ": 535,
      "vy": 536,
      "Ġji": 537,
      "skÃ¡": 538,
      "mÃŃ": 539,
      "Ġjsou": 540,
      "chÃ¡": 541,
      "Po": 542,
      "ĠpÅĻed": 543,
      "lou": 544,
      "vÄĽt": 545,
      "fi": 546,
      "ĠĠĠĠ": 547,
      "Å¾en": 548,
      "vod": 549,
      "Ġjeho": 550,
      "kazy": 551,
      "len": 552,
      "zÃŃ": 553,
      "nou": 554,
      "do": 555,
      "sko": 556,
      "Ġpr": 557,
      "pu": 558,
      "Ġin": 559,
      "ĠZ": 560,
      "ba": 561,
      "Ġch": 562,
      "ĠkterÃ©": 563,
      "Ġkte": 564,
      "sle": 565,
      "nÃŃch": 566,
      "kÅ¯": 567,
      "Ġnebo": 568,
      "jÅ¡ÃŃ": 569,
      "hu": 570,
      "es": 571,
      "Ġpra": 572,
      "tÃ¡": 573,
      "sob": 574,
      "iny": 575,
      "nosti": 576,
      "kov": 577,
      "pÄĽ": 578,
      "ĠmÃŃ": 579,
      "ence": 580,
      "ina": 581,
      "ĠkterÃ½": 582,
      "Ã³": 583,
      "dÃŃ": 584,
      "ÄįÃŃ": 585,
      "zen": 586,
      "kou": 587,
      "pi": 588,
      "ec": 589,
      "mÃ¡": 590,
      "us": 591,
      "Ġce": 592,
      "my": 593,
      "Å¡tÄĽ": 594,
      "ĠÄĮe": 595,
      "ĠÄįe": 596,
      "Ġpou": 597,
      "âĢŀ": 598,
      "skÃ½ch": 599,
      "gh": 600,
      "aro": 601,
      "ruh": 602,
      "Ġale": 603,
      "Ġg": 604,
      "ver": 605,
      "ĠW": 606,
      "za": 607,
      "âĢľ": 608,
      "Ġde": 609,
      "am": 610,
      "Ã¡lnÃŃ": 611,
      "nÃ½ch": 612,
      "ĠtakÃ©": 613,
      "ist": 614,
      "zenÃŃ": 615,
      "Je": 616,
      "ent": 617,
      "stup": 618,
      "lem": 619,
      "ul": 620,
      "Ã©m": 621,
      "Ġma": 622,
      "ĠâĢŀ": 623,
      "zem": 624,
      "Ġze": 625,
      "10": 626,
      "lav": 627,
      "ovÄĽ": 628,
      "lig": 629,
      "ani": 630,
      "ĠU": 631,
      "ght": 632,
      "ĠaÅ¾": 633,
      "Ġbylo": 634,
      "rch": 635,
      "Ġsto": 636,
      "mÃ©": 637,
      "ckÃ½": 638,
      "ovÃ¡nÃŃ": 639,
      "Na": 640,
      "rie": 641,
      "kem": 642,
      "ena": 643,
      "Å¥": 644,
      "ĠÄįÃ¡": 645,
      "tÃ©": 646,
      "tech": 647,
      "ĠÅ¾i": 648,
      "hy": 649,
      "right": 650,
      "ternÃŃ": 651,
      "lign": 652,
      "Ġalign": 653,
      "=right": 654,
      "leÄį": 655,
      "un": 656,
      "ska": 657,
      "alÅ¡ÃŃ": 658,
      "17": 659,
      "ĠpÅ¯": 660,
      "15": 661,
      "xternÃŃ": 662,
      "Ġodkazy": 663,
      "ovan": 664,
      "nice": 665,
      "sku": 666,
      "stÃŃ": 667,
      "gra": 668,
      "eri": 669,
      "Ġsy": 670,
      "ub": 671,
      "et": 672,
      "fer": 673,
      "Ġlet": 674,
      "Ġvel": 675,
      "letÃŃ": 676,
      "Ġdruh": 677,
      "ovi": 678,
      "ĠÅĻÃŃ": 679,
      "16": 680,
      "Ġvo": 681,
      "ĠRe": 682,
      "pa": 683,
      "ĠkterÃ¡": 684,
      "nÃŃho": 685,
      "ĠtÃ©": 686,
      "Äįi": 687,
      "Å¡ak": 688,
      "ur": 689,
      "ĠkrÃ¡": 690,
      "Ġsi": 691,
      "ĠÅł": 692,
      "ĠMa": 693,
      "ez": 694,
      "14": 695,
      "Ġmu": 696,
      "val": 697,
      "klad": 698,
      "sky": 699,
      "Ġzem": 700,
      "stÄĽ": 701,
      "hra": 702,
      "12": 703,
      "Ġni": 704,
      "Ġsp": 705,
      "he": 706,
      "ĠbÃ½": 707,
      "ste": 708,
      "Ġpoz": 709,
      "13": 710,
      "os": 711,
      "chÃ¡zÃŃ": 712,
      "ovÃ½": 713,
      "ĠPra": 714,
      "Ã¡d": 715,
      "ovat": 716,
      "Ġjedno": 717,
      "kt": 718,
      "ĠExternÃŃ": 719,
      "Ġok": 720,
      "ali": 721,
      "den": 722,
      "ing": 723,
      "Ġnap": 724,
      "hod": 725,
      "ĠdÄĽ": 726,
      "Ġdi": 727,
      "ckÃ¡": 728,
      "00": 729,
      "ference": 730,
      "om": 731,
      "ĠprvnÃŃ": 732,
      "Ã¡n": 733,
      "11": 734,
      "rt": 735,
      "logi": 736,
      "Ġkdy": 737,
      "ĠstoletÃŃ": 738,
      "ĠSt": 739,
      "Ġmezi": 740,
      "so": 741,
      "ĠvÅ¡ak": 742,
      "ckÃ½ch": 743,
      "uto": 744,
      "Ġbyly": 745,
      "Ġra": 746,
      "ÅĻad": 747,
      "Od": 748,
      "koli": 749,
      "bÃŃ": 750,
      "ng": 751,
      "ÅĻen": 752,
      "erv": 753,
      "nd": 754,
      "ĠdalÅ¡ÃŃ": 755,
      "vu": 756,
      "isto": 757,
      "van": 758,
      "op": 759,
      "inÃ¡": 760,
      "ĠÅĻe": 761,
      "nÃ©ho": 762,
      "ÃŃm": 763,
      "jen": 764,
      "Ġsku": 765,
      "Ġpa": 766,
      "ovÃ½ch": 767,
      "last": 768,
      "Ġkde": 769,
      "um": 770,
      "Ġhra": 771,
      "ot": 772,
      "ĠmÃ¡": 773,
      "ckÃ©ho": 774,
      "ĠLi": 775,
      "rem": 776,
      "ĠÃļ": 777,
      "inu": 778,
      "zÃ¡": 779,
      "ĠspoleÄį": 780,
      "ĠprÃ¡": 781,
      "Ġzde": 782,
      "ĠtÄĽ": 783,
      "Ġletech": 784,
      "ĠjiÅ¾": 785,
      "Ġ-": 786,
      "rodnÃŃ": 787,
      "ĠvÃŃ": 788,
      "Å¾it": 789,
      "bi": 790,
      "cÃŃch": 791,
      "zu": 792,
      "vr": 793,
      "loven": 794,
      "ÃŃd": 795,
      "oh": 796,
      "inÄĽ": 797,
      "skou": 798,
      "znam": 799,
      "ĠdÃŃ": 800,
      "res": 801,
      "ct": 802,
      "mr": 803,
      "stÅĻe": 804,
      "ala": 805,
      "kÃ©": 806,
      "vÃ©": 807,
      "ej": 808,
      "tek": 809,
      "skÃ©m": 810,
      "Ġstra": 811,
      "rg": 812,
      "ĠstÃ¡": 813,
      "Ġlo": 814,
      "bli": 815,
      "Å¯m": 816,
      "hem": 817,
      "ĠzaÄį": 818,
      "ast": 819,
      "Å¡tÃŃ": 820,
      "sled": 821,
      "Ġnad": 822,
      "jich": 823,
      "Ãº": 824,
      "rÃ¡l": 825,
      "ĠcÃŃ": 826,
      "tem": 827,
      "Ġos": 828,
      "Ġmno": 829,
      "nky": 830,
      "vatel": 831,
      "Ġhla": 832,
      "ĠstÅĻe": 833,
      "ĠÅ¾": 834,
      "ÃŃs": 835,
      "rou": 836,
      "hÃ¡": 837,
      "stat": 838,
      "Ġsa": 839,
      "ĠÄįi": 840,
      "ĠsvÃ©": 841,
      "ĠvÃ¡l": 842,
      "zemÃŃ": 843,
      "ber": 844,
      "nÄĽjÅ¡ÃŃ": 845,
      "nÃŃk": 846,
      "ĠPo": 847,
      "vÃ½": 848,
      "Ġco": 849,
      "Ġmi": 850,
      "ĠjejÃŃ": 851,
      "stou": 852,
      "ĠvÄĽt": 853,
      "emi": 854,
      "Ġty": 855,
      "Äįen": 856,
      "Ġpat": 857,
      "meri": 858,
      "Ġskup": 859,
      "cen": 860,
      "Ġtra": 861,
      "cha": 862,
      "Ġex": 863,
      "ĠNaro": 864,
      "ĠMi": 865,
      "Ġzna": 866,
      "for": 867,
      "pod": 868,
      "cÅ¯": 869,
      "ĠprÅ¯": 870,
      "ĠsouÄį": 871,
      "be": 872,
      "tnÃŃ": 873,
      "nÃ½m": 874,
      "dÄĽji": 875,
      "ed": 876,
      "vat": 877,
      "vou": 878,
      "kra": 879,
      "ĠFran": 880,
      "ĠÄįerv": 881,
      "pro": 882,
      "ut": 883,
      "ĠReference": 884,
      "dob": 885,
      "ovala": 886,
      "pis": 887,
      "lat": 888,
      "Ġjejich": 889,
      "ĠzÃŃ": 890,
      "cky": 891,
      "Ġvzni": 892,
      "kti": 893,
      "Å¡i": 894,
      "Ġry": 895,
      "ĠÅ½": 896,
      "chod": 897,
      "ovou": 898,
      "Å¡ÃŃm": 899,
      "man": 900,
      "sÃŃ": 901,
      "sy": 902,
      "vro": 903,
      "Ġpoli": 904,
      "rnÃŃ": 905,
      "Ġoby": 906,
      "ir": 907,
      "su": 908,
      "ĠÃºzemÃŃ": 909,
      "ĠNarozenÃŃ": 910,
      "Ġbo": 911,
      "stÃ¡": 912,
      "raz": 913,
      "Ġauto": 914,
      "sla": 915,
      "Ġstav": 916,
      "Ã½mi": 917,
      "tra": 918,
      "tej": 919,
      "ÄįenÃŃ": 920,
      "ĠbÃ½t": 921,
      "ĠMo": 922,
      "pÅ¯": 923,
      "ĠnÄĽk": 924,
      "ĠsvÄĽt": 925,
      "ĠCh": 926,
      "ĠvlÃ¡": 927,
      "ovÃ©ho": 928,
      "Äı": 929,
      "ga": 930,
      "hle": 931,
      "Ġpak": 932,
      "Ġjin": 933,
      "ge": 934,
      "ĠKa": 935,
      "loÅ¾en": 936,
      "Ġjen": 937,
      "Ġproto": 938,
      "ĠdÅ¯": 939,
      "ĠmÄĽsta": 940,
      "bor": 941,
      "ĠnÄĽkoli": 942,
      "tera": 943,
      "jem": 944,
      "Pro": 945,
      "spÄĽ": 946,
      "ĠbÄĽ": 947,
      "Ġproti": 948,
      "Ġobje": 949,
      "Âłro": 950,
      "vnÄĽ": 951,
      "Ã½chod": 952,
      "30": 953,
      "ana": 954,
      "ĠvÅ¡e": 955,
      "ĠÅ¾ivo": 956,
      "ilo": 957,
      "Ġal": 958,
      "ujÃŃ": 959,
      "go": 960,
      "ovÃ¡n": 961,
      "Ġbez": 962,
      "pr": 963,
      "Ġvod": 964,
      "nov": 965,
      "ĠneÅ¾": 966,
      "and": 967,
      "art": 968,
      "Ġnem": 969,
      "ĠpouÅ¾ÃŃ": 970,
      "sÃ¡": 971,
      "Ro": 972,
      "Ġvlast": 973,
      "Ġpov": 974,
      "Ġta": 975,
      "id": 976,
      "ude": 977,
      "Ġfil": 978,
      "Ġso": 979,
      "ĠPa": 980,
      "Å¡en": 981,
      "hla": 982,
      "ca": 983,
      "ĠpÅĻes": 984,
      "ard": 985,
      "ĠÅ¡ko": 986,
      "Äįet": 987,
      "zv": 988,
      "Ġsk": 989,
      "Å¯Å¾e": 990,
      "ĠsvÄĽ": 991,
      "Ġ|": 992,
      "ĠpÅ¯vod": 993,
      "ven": 994,
      "Ġmod": 995,
      "Ġpodle": 996,
      "ĠÄįlen": 997,
      "rod": 998,
      "Ġl": 999,
      "zo": 1000,
      "gu": 1001,
      "skÃ½m": 1002,
      "im": 1003,
      "stro": 1004,
      "ĠKo": 1005,
      "Ġtr": 1006,
      "Ġaby": 1007,
      "Ġja": 1008,
      "Ġke": 1009,
      "aly": 1010,
      "ĠAl": 1011,
      "ckou": 1012,
      "Ġru": 1013,
      "itu": 1014,
      "Ġkra": 1015,
      "ÅĻenÃŃ": 1016,
      "oto": 1017,
      "nit": 1018,
      "py": 1019,
      "rese": 1020,
      "ĠNe": 1021,
      "bnÃŃ": 1022,
      "ke": 1023,
      "nem": 1024,
      "grafi": 1025,
      "ĠJi": 1026,
      "ĠpozdÄĽji": 1027,
      "Å¾enÃŃ": 1028,
      "21": 1029,
      "lez": 1030,
      "ĠBo": 1031,
      "Ġobyvatel": 1032,
      "Ve": 1033,
      "ĠII": 1034,
      "Ġdne": 1035,
      "co": 1036,
      "ÄįnÄĽ": 1037,
      "tura": 1038,
      "Ġlid": 1039,
      "stÃ©": 1040,
      "50": 1041,
      "rnÄĽ": 1042,
      "ÅĻÃ¡": 1043,
      "Ġtoho": 1044,
      "znÃ¡": 1045,
      "lenÃŃ": 1046,
      "kce": 1047,
      "sloven": 1048,
      "Ġmal": 1049,
      "ily": 1050,
      "Ġcel": 1051,
      "Ġsil": 1052,
      "Ġpoliti": 1053,
      "ĠrÅ¯": 1054,
      "tr": 1055,
      "Âłk": 1056,
      "ĠÄįÃ¡sti": 1057,
      "skosloven": 1058,
      "ĠSe": 1059,
      "ĠnÃŃ": 1060,
      "dou": 1061,
      "lan": 1062,
      "Å¡t": 1063,
      "chy": 1064,
      "Ġkom": 1065,
      "ĠÄįÃ¡st": 1066,
      "ÅĻej": 1067,
      "Ġpostav": 1068,
      "ÅĻÃŃklad": 1069,
      "Ġbud": 1070,
      "Ġhod": 1071,
      "cem": 1072,
      "Ġop": 1073,
      "Ġov": 1074,
      "rÃ¡t": 1075,
      "ĠznÃ¡": 1076,
      "Ġrod": 1077,
      "ene": 1078,
      "ab": 1079,
      "Ġves": 1080,
      "tor": 1081,
      "Ġpouze": 1082,
      "Ġozna": 1083,
      "anÃ©": 1084,
      "publi": 1085,
      "hl": 1086,
      "ĠvÅ¡ech": 1087,
      "ĠLe": 1088,
      "ĠÅĻad": 1089,
      "Ġobla": 1090,
      "ologi": 1091,
      "istori": 1092,
      "ĠÅĺ": 1093,
      "ĠRo": 1094,
      "liv": 1095,
      "Ġstal": 1096,
      "Ġokrese": 1097,
      "ĠstÃ¡t": 1098,
      "rob": 1099,
      "fe": 1100,
      "Ġspolu": 1101,
      "ĠÄįlÃ¡": 1102,
      "ento": 1103,
      "Ġar": 1104,
      "stra": 1105,
      "Pod": 1106,
      "ĠmÅ¯Å¾e": 1107,
      "dr": 1108,
      "Ã¡le": 1109,
      "inou": 1110,
      "mati": 1111,
      "mrtÃŃ": 1112,
      "bra": 1113,
      "ĠlÃ©": 1114,
      "Ġvyt": 1115,
      "dla": 1116,
      "Ġfun": 1117,
      "met": 1118,
      "ĠIn": 1119,
      "25": 1120,
      "vajÃŃ": 1121,
      "kovÃ©": 1122,
      "22": 1123,
      "sty": 1124,
      "Ġjednot": 1125,
      "mÃ©na": 1126,
      "Ġosob": 1127,
      "Ġpe": 1128,
      "ĠNa": 1129,
      "vis": 1130,
      "alo": 1131,
      "Ġpar": 1132,
      "slu": 1133,
      "ĠMu": 1134,
      "nÃ©m": 1135,
      "ĠdobÄĽ": 1136,
      "cou": 1137,
      "niver": 1138,
      "ĠbÅĻe": 1139,
      "ujÃŃcÃŃ": 1140,
      "prÃ¡": 1141,
      "zd": 1142,
      "Äįka": 1143,
      "les": 1144,
      "Ġvi": 1145,
      "Ġvyu": 1146,
      "Ġstej": 1147,
      "Å¾el": 1148,
      "Ġorg": 1149,
      "ovnÃŃ": 1150,
      "ĠtÅĻe": 1151,
      "stru": 1152,
      "90": 1153,
      "Å¾nÄĽ": 1154,
      "ovÃ¡na": 1155,
      "lad": 1156,
      "sah": 1157,
      "pÅ¯sob": 1158,
      "ĠAn": 1159,
      "Do": 1160,
      "Ġbi": 1161,
      "ĠÃºÄį": 1162,
      "ĠmoÅ¾": 1163,
      "ini": 1164,
      "vÃ¡nÃŃ": 1165,
      "Ġkni": 1166,
      "nostÃŃ": 1167,
      "Å¾il": 1168,
      "ĠvÃŃce": 1169,
      "Za": 1170,
      "Ġrepubli": 1171,
      "ciÃ¡lnÃŃ": 1172,
      "padu": 1173,
      "vÅ¯": 1174,
      "Ġof": 1175,
      "ince": 1176,
      "Ġtvo": 1177,
      "Ġ\"": 1178,
      "Ġpla": 1179,
      "Ġdva": 1180,
      "Ġdvou": 1181,
      "ĠpÃŃs": 1182,
      "Re": 1183,
      "Ġpodob": 1184,
      "voj": 1185,
      "ĠEvro": 1186,
      "Ġobce": 1187,
      "udi": 1188,
      "rit": 1189,
      "ĠNÄĽ": 1190,
      "ten": 1191,
      "Ġsr": 1192,
      "zit": 1193,
      "ĠpoÄį": 1194,
      "Ġpre": 1195,
      "ĠpÄĽ": 1196,
      "Ġfor": 1197,
      "hou": 1198,
      "losti": 1199,
      "chÃ¡ze": 1200,
      "ĠPraha": 1201,
      "Âłroce": 1202,
      "bÃ¡": 1203,
      "pÃŃ": 1204,
      "hi": 1205,
      "Ġzd": 1206,
      "ĠumÄĽ": 1207,
      "istorie": 1208,
      "prav": 1209,
      "ĠJo": 1210,
      "Ġsamo": 1211,
      "del": 1212,
      "ktu": 1213,
      "Ġkan": 1214,
      "23": 1215,
      "80": 1216,
      "ĠtÃ©to": 1217,
      "Å¡enÃŃ": 1218,
      "60": 1219,
      "lekt": 1220,
      "roj": 1221,
      "ĠcoÅ¾": 1222,
      "hrÃ¡": 1223,
      "Ġsever": 1224,
      "ĠÄįty": 1225,
      "06": 1226,
      "09": 1227,
      "Ġled": 1228,
      "Ġasi": 1229,
      "Ġobdob": 1230,
      "ant": 1231,
      "Odkazy": 1232,
      "ĠpÅ¯sob": 1233,
      "enÃŃ": 1234,
      "gen": 1235,
      "Ġvelmi": 1236,
      "PÅĻe": 1237,
      "ĠhlavnÃŃ": 1238,
      "teri": 1239,
      "nutÃŃ": 1240,
      "vise": 1241,
      "Ġnep": 1242,
      "ĠmÄĽst": 1243,
      "Ġman": 1244,
      "ara": 1245,
      "ĠJan": 1246,
      "ĠnÄĽme": 1247,
      "ĠnachÃ¡zÃŃ": 1248,
      "Ġvol": 1249,
      "ĠnÄĽkolik": 1250,
      "ctvÃŃ": 1251,
      "ĠSou": 1252,
      "40": 1253,
      "ĠrÃ¡": 1254,
      "ĠÃļmrtÃŃ": 1255,
      "rvnÃŃ": 1256,
      "inci": 1257,
      "let": 1258,
      "cho": 1259,
      "24": 1260,
      "08": 1261,
      "ngli": 1262,
      "ĠÄįa": 1263,
      "hlÃ¡": 1264,
      "tele": 1265,
      "ĠvÃ½znam": 1266,
      "pÄĽt": 1267,
      "ĠzemÄĽ": 1268,
      "mÅ¯": 1269,
      "ĠrÅ¯z": 1270,
      "Ġvrch": 1271,
      "Ġpomo": 1272,
      "ĠvÄĽtÅ¡": 1273,
      "Ġslou": 1274,
      "ĠvÃ½chod": 1275,
      "Ġ%": 1276,
      "Ġpros": 1277,
      "ĠvÃ¡": 1278,
      "lin": 1279,
      "By": 1280,
      "ron": 1281,
      "Ġprac": 1282,
      "ĠmÃŃst": 1283,
      "ĠÄįas": 1284,
      "Ġtu": 1285,
      "ĠmÄĽl": 1286,
      "ĠzÃ¡kla": 1287,
      "visejÃŃcÃŃ": 1288,
      "ory": 1289,
      "ĠkdyÅ¾": 1290,
      "tion": 1291,
      "07": 1292,
      "Ġur": 1293,
      "Ã¡c": 1294,
      "kro": 1295,
      "couz": 1296,
      "Ġobec": 1297,
      "ĠstrÃ¡": 1298,
      "Äįit": 1299,
      "Ġdlou": 1300,
      "ĠkvÄĽt": 1301,
      "Å¡Å¡ÃŃ": 1302,
      "ĠhrÃ¡": 1303,
      "pon": 1304,
      "ĠvÃ¡lky": 1305,
      "ĠtÅĻi": 1306,
      "ĠnÄĽkter": 1307,
      "kÃ½": 1308,
      "ĠHo": 1309,
      "ment": 1310,
      "ĠÄįlÃ¡nky": 1311,
      "muni": 1312,
      "Ġkap": 1313,
      "dev": 1314,
      "Ġameri": 1315,
      "niÄįnÃŃ": 1316,
      "hled": 1317,
      "ĠtÅĻÃŃ": 1318,
      "ĠJa": 1319,
      "Ob": 1320,
      "Ġpot": 1321,
      "ĠzÃŃsk": 1322,
      "son": 1323,
      "Å¡lo": 1324,
      "ĠdvÄĽ": 1325,
      "Ġdob": 1326,
      "ĠzpÅ¯sob": 1327,
      "Ġpan": 1328,
      "Ġoko": 1329,
      "slednÃŃ": 1330,
      "ale": 1331,
      "pan": 1332,
      "chu": 1333,
      "Ġmin": 1334,
      "ĠkrÃ¡lov": 1335,
      "enÃ©": 1336,
      "ĠPro": 1337,
      "Ġkul": 1338,
      "Ġhistori": 1339,
      "ie": 1340,
      "ĠKar": 1341,
      "klÃ¡": 1342,
      "ĠMe": 1343,
      "nici": 1344,
      "ĠsmÄĽ": 1345,
      "Ġslu": 1346,
      "ĠpÃ¡": 1347,
      "Ġtedy": 1348,
      "Å¡Å¥": 1349,
      "Ġsva": 1350,
      "devÅ¡ÃŃm": 1351,
      "ĠnapÅĻÃŃklad": 1352,
      "tom": 1353,
      "zace": 1354,
      "Ġslov": 1355,
      "VÃ½": 1356,
      "SA": 1357,
      "stal": 1358,
      "ĠpÅĻedstav": 1359,
      "ĠNÃ¡": 1360,
      "ĠobdobÃŃ": 1361,
      "ĠsÃŃ": 1362,
      "ĠdruhÃ©": 1363,
      "05": 1364,
      "Ġproje": 1365,
      "Ġzak": 1366,
      "eno": 1367,
      "slav": 1368,
      "vali": 1369,
      "ĠmÃŃsto": 1370,
      "Ġbyli": 1371,
      "ĠMar": 1372,
      "Å½": 1373,
      "ĠJe": 1374,
      "Ġvyso": 1375,
      "nes": 1376,
      "Ġba": 1377,
      "gy": 1378,
      "nil": 1379,
      "ovy": 1380,
      "ĠsouÄįas": 1381,
      "hro": 1382,
      "dl": 1383,
      "lnÃŃ": 1384,
      "ili": 1385,
      "Äįil": 1386,
      "ĠjeÅ¡tÄĽ": 1387,
      "Jeho": 1388,
      "tro": 1389,
      "kud": 1390,
      "ĠzÃ¡ÅĻÃŃ": 1391,
      "ĠÄĮeskÃ©": 1392,
      "ckÃ½m": 1393,
      "zra": 1394,
      "nÄĽnÃŃ": 1395,
      "70": 1396,
      "ech": 1397,
      "ĠĠĠ": 1398,
      "nie": 1399,
      "spo": 1400,
      "ĠzaloÅ¾en": 1401,
      "ĠbÄĽhem": 1402,
      "Ġnich": 1403,
      "teÄį": 1404,
      "Ġrych": 1405,
      "Ġoblasti": 1406,
      "ĠkteÅĻÃŃ": 1407,
      "rÃ©": 1408,
      "kci": 1409,
      "Ġan": 1410,
      "Ġla": 1411,
      "45": 1412,
      "zev": 1413,
      "Ġsch": 1414,
      "pl": 1415,
      "ata": 1416,
      "01": 1417,
      "ĠSpo": 1418,
      "ĠpÅĻedevÅ¡ÃŃm": 1419,
      "Ġote": 1420,
      "Ġstudi": 1421,
      "Å¾d": 1422,
      "ener": 1423,
      "stopadu": 1424,
      "rat": 1425,
      "lep": 1426,
      "ÅĻil": 1427,
      "ine": 1428,
      "04": 1429,
      "Ġveli": 1430,
      "nÅ¯": 1431,
      "teratura": 1432,
      "ovo": 1433,
      "Ã¡tku": 1434,
      "tivnÃŃ": 1435,
      "ĠÅ¾en": 1436,
      "her": 1437,
      "Nej": 1438,
      "Âłkm": 1439,
      "ĠzÃ¡pad": 1440,
      "ovanÃ©": 1441,
      "ĠSa": 1442,
      "ĠsouÄįÃ¡": 1443,
      "mou": 1444,
      "Ġelekt": 1445,
      "eb": 1446,
      "Âłm": 1447,
      "26": 1448,
      "ĠRu": 1449,
      "stoup": 1450,
      "ĠzmÄĽ": 1451,
      "Ġode": 1452,
      "ĠpÅĻÃŃpad": 1453,
      "Ġjazy": 1454,
      "ĠÅĻÃŃj": 1455,
      "Vy": 1456,
      "ĠnenÃŃ": 1457,
      "ovali": 1458,
      "eny": 1459,
      "NÃ¡": 1460,
      "Ġci": 1461,
      "kÃ¡ch": 1462,
      "Ġneby": 1463,
      "ĠprostÅĻe": 1464,
      "lost": 1465,
      "ĠThe": 1466,
      "moÅĻ": 1467,
      "ĠmÄĽsto": 1468,
      "pre": 1469,
      "enÃ¡": 1470,
      "nÃ½mi": 1471,
      "dÄĽl": 1472,
      "Å¾nÃŃ": 1473,
      "ĠsvÃ©ho": 1474,
      "Ġvznik": 1475,
      "28": 1476,
      "grafie": 1477,
      "dal": 1478,
      "ĠLu": 1479,
      "xi": 1480,
      "ckÃ©m": 1481,
      "onu": 1482,
      "Ġpostup": 1483,
      "plo": 1484,
      "Ġdoby": 1485,
      "ren": 1486,
      "Ġarch": 1487,
      "Ġsta": 1488,
      "bou": 1489,
      "ĠY": 1490,
      "Äįky": 1491,
      "ĠÅ¡e": 1492,
      "sad": 1493,
      "race": 1494,
      "02": 1495,
      "Ġstar": 1496,
      "rav": 1497,
      "ĠjmÃ©": 1498,
      "Ġdub": 1499,
      "Å¡el": 1500,
      "27": 1501,
      "stu": 1502,
      "Ġrozhod": 1503,
      "dÃ¡nÃŃ": 1504,
      "Ġskupiny": 1505,
      "ps": 1506,
      "Ġvoj": 1507,
      "min": 1508,
      "ĠBa": 1509,
      "smu": 1510,
      "niverzit": 1511,
      "jmÃ©na": 1512,
      "Ã¼": 1513,
      "Ġdopra": 1514,
      "bal": 1515,
      "voz": 1516,
      "Ġsna": 1517,
      "mÃŃn": 1518,
      "Ġver": 1519,
      "kovÃ¡": 1520,
      "Ġkonce": 1521,
      "âĢľ.": 1522,
      "lit": 1523,
      "Äįek": 1524,
      "ĠDo": 1525,
      "Ġvytvo": 1526,
      "ĠnapÅĻ": 1527,
      "ĠsÃŃd": 1528,
      "Ġva": 1529,
      "tÃŃm": 1530,
      "hor": 1531,
      "amÃ¡t": 1532,
      "ĠAmeri": 1533,
      "ĠpatÅĻÃŃ": 1534,
      "03": 1535,
      "ÄĽl": 1536,
      "Ġcent": 1537,
      "lÃ¡Å¡": 1538,
      "rancouz": 1539,
      "Ã¡lnÄĽ": 1540,
      "vil": 1541,
      "Historie": 1542,
      "Ġorgani": 1543,
      "29": 1544,
      "Ġtom": 1545,
      "99": 1546,
      "Ġmus": 1547,
      "Ġw": 1548,
      "ĠmajÃŃ": 1549,
      "Ġnaz": 1550,
      "tÄĽz": 1551,
      "Ġkla": 1552,
      "vnÃŃm": 1553,
      "sil": 1554,
      "Ġher": 1555,
      "St": 1556,
      "ĠÄįin": 1557,
      "ĠtÃŃm": 1558,
      "Ġklu": 1559,
      "ĠnÃ¡sled": 1560,
      "ĠLa": 1561,
      "31": 1562,
      "zku": 1563,
      "ĠpÅĻ": 1564,
      "ĠarmÃ¡": 1565,
      "ĠZÃ¡": 1566,
      "ĠÄįasto": 1567,
      "Ġmy": 1568,
      "fa": 1569,
      "Ġtzv": 1570,
      "Ġani": 1571,
      "ĠNÄĽme": 1572,
      "ĠsprÃ¡": 1573,
      "Ġfoto": 1574,
      "Ġsvou": 1575,
      "ovÃ½m": 1576,
      "Pra": 1577,
      "ĠjÃŃ": 1578,
      "Ġkultu": 1579,
      "ĠtÃ½": 1580,
      "til": 1581,
      "oc": 1582,
      "Ġmet": 1583,
      "Ġplo": 1584,
      "ang": 1585,
      "Ġtech": 1586,
      "Ã©l": 1587,
      "liÅ¡": 1588,
      "hr": 1589,
      "tickÃ©": 1590,
      "Ġdu": 1591,
      "ĠvÅ¯": 1592,
      "98": 1593,
      "stÃ©m": 1594,
      "ĠuÅ¾": 1595,
      "ja": 1596,
      "zer": 1597,
      "ÄĽk": 1598,
      "forma": 1599,
      "Äįan": 1600,
      "prac": 1601,
      "Ġsrp": 1602,
      "ĠzejmÃ©na": 1603,
      "Ġjeden": 1604,
      "Ġjej": 1605,
      "ok": 1606,
      "ĠJose": 1607,
      "ĠpotÃ©": 1608,
      "Jed": 1609,
      "Ġlze": 1610,
      "ĠOd": 1611,
      "ĠvÃ½ro": 1612,
      "Ġlistopadu": 1613,
      "97": 1614,
      "tÅ¯": 1615,
      "Ġpodpo": 1616,
      "Ġspe": 1617,
      "Ġdokon": 1618,
      "jmen": 1619,
      "Ġhlav": 1620,
      "ĠÃºno": 1621,
      "stel": 1622,
      "Ġkterou": 1623,
      "48": 1624,
      "ĠcÃŃsa": 1625,
      "ĠVi": 1626,
      "Ã¶": 1627,
      "ĠÄĮeskosloven": 1628,
      "ton": 1629,
      "PÅĻi": 1630,
      "Ġpolov": 1631,
      "ovaly": 1632,
      "ĠÄįt": 1633,
      "ĠsvÄĽtovÃ©": 1634,
      "ĠnÄĽj": 1635,
      "ĠDi": 1636,
      "ÅĻel": 1637,
      "ĠBe": 1638,
      "ĠSouvisejÃŃcÃŃ": 1639,
      "Åł": 1640,
      "kaz": 1641,
      "Ġtohoto": 1642,
      "emo": 1643,
      "ple": 1644,
      "ĠdalÅ¡ÃŃch": 1645,
      "ĠPraze": 1646,
      "Ġstro": 1647,
      "nek": 1648,
      "jed": 1649,
      "vÄĽtÅ¡ÃŃ": 1650,
      "ĠlÃ¡": 1651,
      "Ġpova": 1652,
      "Roku": 1653,
      "Ġvede": 1654,
      "ĠumÃŃ": 1655,
      "ZÃ¡": 1656,
      "Ta": 1657,
      "ino": 1658,
      "lech": 1659,
      "Ġstrany": 1660,
      "BA": 1661,
      "ĠkÅĻÃŃ": 1662,
      "Ġkomuni": 1663,
      "lÃ½": 1664,
      "Ġstani": 1665,
      "yk": 1666,
      "ovÃ¡ny": 1667,
      "nik": 1668,
      "Ġnedo": 1669,
      "datel": 1670,
      "ĠzÃŃskal": 1671,
      "Ã¡ÅĻ": 1672,
      "Ġsmr": 1673,
      "Å¡em": 1674,
      "dil": 1675,
      "ĠÃºspÄĽ": 1676,
      "ĠNi": 1677,
      "Ġzahra": 1678,
      "Ġpos": 1679,
      "ovalo": 1680,
      "Ġhude": 1681,
      "stickÃ©": 1682,
      "ĠplÃ¡": 1683,
      "96": 1684,
      "ĠOb": 1685,
      "Ġbu": 1686,
      "Ġfrancouz": 1687,
      "92": 1688,
      "kle": 1689,
      "lÅ¯": 1690,
      "nout": 1691,
      "ĠÅĻÃŃjna": 1692,
      "ich": 1693,
      "ĠSo": 1694,
      "pen": 1695,
      "Sou": 1696,
      "ĠÄįÃŃs": 1697,
      "wa": 1698,
      "ĠBu": 1699,
      "Reference": 1700,
      "ĠPe": 1701,
      "Ġ|-": 1702,
      "telem": 1703,
      "sch": 1704,
      "ĠDe": 1705,
      "toli": 1706,
      "ĠVy": 1707,
      "95": 1708,
      "per": 1709,
      "ĠvyuÅ¾ÃŃ": 1710,
      "mci": 1711,
      "stech": 1712,
      "ĠLiteratura": 1713,
      "Ġtele": 1714,
      "Ġfilm": 1715,
      "hov": 1716,
      "Ġobchod": 1717,
      "ĠĠĠĠĠĠ": 1718,
      "vor": 1719,
      "cie": 1720,
      "rd": 1721,
      "ovÃ¡no": 1722,
      "Ġdiva": 1723,
      "35": 1724,
      "ĠsvÄĽta": 1725,
      "ÅĻes": 1726,
      "pÃ¡": 1727,
      "Ġ.": 1728,
      "rk": 1729,
      "lie": 1730,
      "ĠprotoÅ¾e": 1731,
      "mys": 1732,
      "ĠmÄĽla": 1733,
      "qu": 1734,
      "ely": 1735,
      "Ġky": 1736,
      "zal": 1737,
      ".)": 1738,
      "Ġkri": 1739,
      "nickÃ©": 1740,
      "ĠvlastnÃŃ": 1741,
      "91": 1742,
      "ĠposlednÃŃ": 1743,
      "ĠBer": 1744,
      "Ġkm": 1745,
      "Ġsvo": 1746,
      "Me": 1747,
      "ĠzÅ¯": 1748,
      "ster": 1749,
      "mÄĽÅĻ": 1750,
      "Äįem": 1751,
      "89": 1752,
      "romÄĽ": 1753,
      "Å¡ek": 1754,
      "Ġexist": 1755,
      "omi": 1756,
      "ity": 1757,
      "Å¾itÃŃ": 1758,
      "Ġsyn": 1759,
      "Ġno": 1760,
      "ĠMuÅ¾i": 1761,
      "Ġmili": 1762,
      "ym": 1763,
      "Ġat": 1764,
      "Ã¡lu": 1765,
      "mÄĽr": 1766,
      "Ne": 1767,
      "Ġzab": 1768,
      "ĠspoleÄįnosti": 1769,
      "ĠtÃ©Å¾": 1770,
      "ld": 1771,
      "ĠnÄĽm": 1772,
      "Äįas": 1773,
      "ond": 1774,
      "ĠPet": 1775,
      "ĠtÄĽch": 1776,
      "rel": 1777,
      "Ġ|(": 1778,
      "ĠkaÅ¾d": 1779,
      "Ġuve": 1780,
      "ĠpamÃ¡t": 1781,
      "ĠRa": 1782,
      "Ġhor": 1783,
      "ĠsystÃ©m": 1784,
      "ĠpÅĻipo": 1785,
      "ĠAr": 1786,
      "jenÃŃ": 1787,
      "Ġope": 1788,
      "ĠpovaÅ¾": 1789,
      "ĠoznaÄį": 1790,
      "Ġoch": 1791,
      "dÄĽnÃŃ": 1792,
      "ĠsouÄįÃ¡stÃŃ": 1793,
      "ind": 1794,
      "skup": 1795,
      "ĠleÅ¾ÃŃ": 1796,
      "ĠVel": 1797,
      "94": 1798,
      "ĠvÃ½Å¡": 1799,
      "ĠveÅĻej": 1800,
      "Ġvla": 1801,
      "vala": 1802,
      "Ġvojen": 1803,
      "Ġledna": 1804,
      ".c": 1805,
      "ĠbÃ½val": 1806,
      "ĠkvÄĽtna": 1807,
      "Ġkat": 1808,
      "dujÃŃcÃŃ": 1809,
      "93": 1810,
      "MBA": 1811,
      "ĠUSA": 1812,
      "bod": 1813,
      "th": 1814,
      "dlo": 1815,
      "Ġslo": 1816,
      "ĠMÄĽ": 1817,
      "Ġteh": 1818,
      "Podle": 1819,
      "Ġtento": 1820,
      "Ġtomu": 1821,
      "zÃ¡pad": 1822,
      "ĠVe": 1823,
      "Ġthe": 1824,
      "strov": 1825,
      "Ġ(*": 1826,
      "lice": 1827,
      "Ã½vÃ¡": 1828,
      "rove": 1829,
      "Ġstud": 1830,
      "ĠJu": 1831,
      "ÄįnÃ©": 1832,
      "ÄįnÃŃch": 1833,
      "ĠdÃ¡le": 1834,
      "sem": 1835,
      "vÅ¯li": 1836,
      "Ġprav": 1837,
      "stvo": 1838,
      "Ġkraj": 1839,
      "38": 1840,
      "Å¯v": 1841,
      "ord": 1842,
      "ĠbÅĻezna": 1843,
      "ĠchrÃ¡": 1844,
      "Ġvesnice": 1845,
      "ĠÅ¾elez": 1846,
      "Ġkolem": 1847,
      "pas": 1848,
      "ĠmnoÅ¾": 1849,
      "stva": 1850,
      "ovatel": 1851,
      "ĠnovÃ©": 1852,
      "ĠdoÅ¡lo": 1853,
      "Ġsez": 1854,
      "ĠmanÅ¾el": 1855,
      "ner": 1856,
      "ĠopÄĽt": 1857,
      "kace": 1858,
      "eo": 1859,
      "ĠcelÃ©": 1860,
      "Ġzv": 1861,
      "Ġangli": 1862,
      "Ka": 1863,
      "Ġfak": 1864,
      "BÄĽ": 1865,
      "Ġpolo": 1866,
      "ada": 1867,
      "lym": 1868,
      "lace": 1869,
      "32": 1870,
      "ivo": 1871,
      "Ġseve": 1872,
      "vky": 1873,
      "ĠnÃ¡zev": 1874,
      "riÃ©": 1875,
      "ako": 1876,
      "ĠobÄĽ": 1877,
      "ÅĻa": 1878,
      "Ġarchi": 1879,
      "Ġmohou": 1880,
      "sahuje": 1881,
      "dle": 1882,
      "DalÅ¡ÃŃ": 1883,
      "Ġad": 1884,
      "ag": 1885,
      "Ġprodu": 1886,
      "Ġprogra": 1887,
      "Ġmist": 1888,
      "ĠpouÅ¾ÃŃvÃ¡": 1889,
      "Å¡nÃŃ": 1890,
      "Ġrok": 1891,
      "Ġhodno": 1892,
      "skytu": 1893,
      "Ġku": 1894,
      "nskÃ©": 1895,
      "Ġsmrti": 1896,
      "Å¡ÃŃch": 1897,
      "Âłp": 1898,
      "nictvÃŃ": 1899,
      "Ġuniverzit": 1900,
      "39": 1901,
      "Ġdubna": 1902,
      "roveÅĪ": 1903,
      "stoupil": 1904,
      "Ġakti": 1905,
      "ic": 1906,
      "zav": 1907,
      "Ġcen": 1908,
      "ovacÃŃ": 1909,
      "ĠPod": 1910,
      "rum": 1911,
      "Ġmen": 1912,
      "Ġbod": 1913,
      "rii": 1914,
      "Ġjedna": 1915,
      "nic": 1916,
      "ÅĻilo": 1917,
      "ĠbÃ¡": 1918,
      "PrvnÃŃ": 1919,
      "75": 1920,
      "Ġjmen": 1921,
      "Ġmnoho": 1922,
      "Ġpob": 1923,
      "Ġsed": 1924,
      "kÃ½ch": 1925,
      "Ġsm": 1926,
      "Ġostat": 1927,
      "ĠTo": 1928,
      "ÄįetnÄĽ": 1929,
      "ĠrozÅ¡ÃŃ": 1930,
      "au": 1931,
      "Ġsrpna": 1932,
      "rovÃ¡": 1933,
      "ĠnÃ¡rodnÃŃ": 1934,
      "ĠÄįervna": 1935,
      "dek": 1936,
      "42": 1937,
      "ĠzÃ¡vod": 1938,
      "Ġotev": 1939,
      "ĠnÄĽkolika": 1940,
      "ita": 1941,
      "ĠX": 1942,
      "Ġrepubliky": 1943,
      "Ġdra": 1944,
      "ĠÃºto": 1945,
      "kraÄį": 1946,
      "Ġkonci": 1947,
      "Ġprosince": 1948,
      "ĠtÄĽchto": 1949,
      "ĠzemÃŃ": 1950,
      "nap": 1951,
      "ĠTe": 1952,
      "ĠtvoÅĻÃŃ": 1953,
      "ĠHe": 1954,
      "skÃ½mi": 1955,
      "ĠsvÃ½ch": 1956,
      "ĠÄįer": 1957,
      "dov": 1958,
      "ĠzaÄįal": 1959,
      "Ġtex": 1960,
      "Ġvzta": 1961,
      "ĠkrÃ¡t": 1962,
      "prvÃ©": 1963,
      "bur": 1964,
      "bÃ¡ch": 1965,
      "pli": 1966,
      "Ġrost": 1967,
      "ane": 1968,
      "kto": 1969,
      "ĠvrÃ¡": 1970,
      "ĠÅ¾Ã¡d": 1971,
      "Ġregi": 1972,
      "Ġkole": 1973,
      "Ġfin": 1974,
      "ĠjinÃ©": 1975,
      "ĠJoh": 1976,
      "85": 1977,
      "ria": 1978,
      "var": 1979,
      "ovÃ©m": 1980,
      "dce": 1981,
      "Ġzalo": 1982,
      "Å¯j": 1983,
      "podob": 1984,
      "ĠmÃŃstÄĽ": 1985,
      "ĠzÃ¡kladnÃŃ": 1986,
      "ÅĪuje": 1987,
      "ĠznÃ¡m": 1988,
      "lil": 1989,
      "Ġfir": 1990,
      "inÃ¡rodnÃŃ": 1991,
      "vajÃŃcÃŃ": 1992,
      "ovice": 1993,
      "Ġprezi": 1994,
      "Ġspis": 1995,
      "vyÅ¡Å¡ÃŃ": 1996,
      "bav": 1997,
      "To": 1998,
      "68": 1999,
      "Ã¡m": 2000,
      "tky": 2001,
      "Ġboj": 2002,
      "led": 2003,
      "znÃŃ": 2004,
      "pat": 2005,
      "Ġten": 2006,
      "rovÃ©": 2007,
      "88": 2008,
      "boru": 2009,
      "ĠsystÃ©": 2010,
      "Ġinter": 2011,
      "nÃ¡nÃŃ": 2012,
      "ficiÃ¡lnÃŃ": 2013,
      "ÅĻÃ¡d": 2014,
      "ĠSch": 2015,
      "BÄĽhem": 2016,
      "Ã¡r": 2017,
      "ĠpochÃ¡zÃŃ": 2018,
      "36": 2019,
      "moÅ¾": 2020,
      "panÄĽl": 2021,
      "SS": 2022,
      "ubli": 2023,
      "ĠpoÅ¾": 2024,
      "Ġpopu": 2025,
      "ĠÄįervence": 2026,
      "ĠnejvÄĽtÅ¡ÃŃ": 2027,
      "81": 2028,
      "vrop": 2029,
      "Å¯vod": 2030,
      "ft": 2031,
      "II": 2032,
      "ĠsoutÄĽ": 2033,
      "Ġfot": 2034,
      "rÃ½": 2035,
      "ovÄĽt": 2036,
      "ĠHra": 2037,
      "ĠÃºnora": 2038,
      "33": 2039,
      "any": 2040,
      "44": 2041,
      "41": 2042,
      "ĠNÄĽmeck": 2043,
      "Ġprob": 2044,
      "Ġstaro": 2045,
      "ĠÅ¾ivot": 2046,
      "sÅ¯": 2047,
      "ĠnÃ¡bo": 2048,
      "Ġzvo": 2049,
      "Byl": 2050,
      "ĠzamÄĽ": 2051,
      "sledujÃŃcÃŃ": 2052,
      "vÄĽz": 2053,
      "ÅĻed": 2054,
      "46": 2055,
      "dÃŃl": 2056,
      "Ġspoj": 2057,
      "novu": 2058,
      "ĠHa": 2059,
      "ĠAu": 2060,
      "Ġtur": 2061,
      "Ġmoder": 2062,
      "ĠtÃ½m": 2063,
      "ĠdÃŃky": 2064,
      "ĠFranti": 2065,
      "Ġmoto": 2066,
      "rozen": 2067,
      "ĠpomocÃŃ": 2068,
      "bit": 2069,
      "ben": 2070,
      "ĠvydÃ¡": 2071,
      "ek": 2072,
      "ÅĻÃŃve": 2073,
      "ĠBra": 2074,
      "49": 2075,
      "Ã¡lnÃŃch": 2076,
      "PÅĻÃŃ": 2077,
      "Ġstala": 2078,
      "65": 2079,
      "Ty": 2080,
      "37": 2081,
      "Ġokres": 2082,
      "ĠÅĻÃŃm": 2083,
      "Ġproce": 2084,
      "ig": 2085,
      "bÄĽh": 2086,
      "ĠdrÃ¡": 2087,
      "kovi": 2088,
      "Ġschop": 2089,
      "ĠKon": 2090,
      "akou": 2091,
      "Ġnov": 2092,
      "des": 2093,
      "rech": 2094,
      "ĠvlÃ¡dy": 2095,
      "ff": 2096,
      "Ġbra": 2097,
      "Ġskon": 2098,
      "ony": 2099,
      "ĠmuÅ¾": 2100,
      "64": 2101,
      "ÅĻÃŃzenÃŃ": 2102,
      "rek": 2103,
      "ĠpokraÄį": 2104,
      "ĠblÃŃ": 2105,
      "ĠvÅ¡echny": 2106,
      "ĠsvÅ¯j": 2107,
      "Ã¤": 2108,
      "73": 2109,
      "poÄį": 2110,
      "cÃŃm": 2111,
      "34": 2112,
      "Ġobsa": 2113,
      "lympi": 2114,
      "Ġpl": 2115,
      "ary": 2116,
      "konomi": 2117,
      "47": 2118,
      "69": 2119,
      "55": 2120,
      "ĠvÃ½kon": 2121,
      "ila": 2122,
      "tace": 2123,
      "log": 2124,
      "inÃ¡le": 2125,
      "Ġtvr": 2126,
      "ĠsluÅ¾": 2127,
      "Ġpravi": 2128,
      "Ġden": 2129,
      "Ġminist": 2130,
      "86": 2131,
      "ĠmÄĽsÃŃ": 2132,
      "Ġter": 2133,
      "Spo": 2134,
      "zrael": 2135,
      "ExternÃŃ": 2136,
      "ĠÄįeskÃ½": 2137,
      "ĠkvÅ¯li": 2138,
      "ĠÄįtyÅĻi": 2139,
      "leÅ¾it": 2140,
      "ĠzÃŃska": 2141,
      "Mezi": 2142,
      "ĠlidÃ©": 2143,
      "ĠvÃ½raz": 2144,
      "72": 2145,
      "Ġdr": 2146,
      "43": 2147,
      "Ġpohy": 2148,
      "prezen": 2149,
      "ĠrÃ¡mci": 2150,
      "ĠJiÅĻÃŃ": 2151,
      "ĠlidÃŃ": 2152,
      "ĠmetrÅ¯": 2153,
      "asi": 2154,
      "bs": 2155,
      "dÄĽlen": 2156,
      "nika": 2157,
      "teli": 2158,
      "risti": 2159,
      "Ġand": 2160,
      "ĠsezÃ³": 2161,
      "ĠBr": 2162,
      "84": 2163,
      "stÅ¯": 2164,
      "ĠvelkÃ©": 2165,
      "Ġdosta": 2166,
      "hrÃ¡l": 2167,
      "Ġot": 2168,
      "bum": 2169,
      "77": 2170,
      "ÄįtÃŃ": 2171,
      "ĠjehoÅ¾": 2172,
      "ĠspoleÄįnost": 2173,
      "71": 2174,
      "Ġteo": 2175,
      "Ġprof": 2176,
      "Ġpal": 2177,
      "Ġnes": 2178,
      "ĠdÃ¡": 2179,
      "logie": 2180,
      "ĠÅ¾ivota": 2181,
      "ĠVo": 2182,
      "mat": 2183,
      "Ġinforma": 2184,
      "52": 2185,
      "menÃ¡": 2186,
      "ĠĠĠĠĠĠĠĠ": 2187,
      "Ġkatast": 2188,
      "eru": 2189,
      "tt": 2190,
      "66": 2191,
      "ovanÃ½": 2192,
      "ovÃŃ": 2193,
      "ĠÄįeskosloven": 2194,
      "87": 2195,
      "67": 2196,
      "ĠÄįtyÅĻ": 2197,
      "82": 2198,
      "Ġjedin": 2199,
      "chal": 2200,
      "ĠhudebnÃŃ": 2201,
      "ĠSloven": 2202,
      "Ġrov": 2203,
      "Ġodp": 2204,
      "kladatel": 2205,
      "Se": 2206,
      "Ġkou": 2207,
      "78": 2208,
      "ÄįnÃŃm": 2209,
      "Ġprov": 2210,
      "ĠvÄĽtÅ¡ÃŃ": 2211,
      "Ġmimo": 2212,
      "ĠnÃ¡v": 2213,
      "gie": 2214,
      "ĠnÄĽkterÃ½ch": 2215,
      "ovit": 2216,
      "ĠVÃ¡c": 2217,
      "ĠvÃ¡lce": 2218,
      "ĠCo": 2219,
      "ĠBar": 2220,
      "ĠjmÃ©no": 2221,
      "ĠkariÃ©": 2222,
      "79": 2223,
      "ĠpotÅĻe": 2224,
      "Ġprovoz": 2225,
      "zel": 2226,
      "ĠpÃŃ": 2227,
      "ĠNÃ¡rodnÃŃ": 2228,
      "bud": 2229,
      "nitÅĻ": 2230,
      "ĠÄįeskÃ©": 2231,
      "76": 2232,
      "yzi": 2233,
      "dÄĽpodob": 2234,
      "konec": 2235,
      "Ġtradi": 2236,
      "spod": 2237,
      "ĠumÃŃstÄĽ": 2238,
      "Ġmat": 2239,
      "51": 2240,
      "Roz": 2241,
      "Tento": 2242,
      "prve": 2243,
      "vykle": 2244,
      "isÃŃ": 2245,
      "ĠmnoÅ¾stvÃŃ": 2246,
      "ĠvÃŃtÄĽz": 2247,
      "vÃ¡dÄĽ": 2248,
      "61": 2249,
      "dent": 2250,
      "Ġkostel": 2251,
      "ĠZa": 2252,
      "ĠJosef": 2253,
      "Ġsu": 2254,
      "74": 2255,
      "ÄĮe": 2256,
      "mot": 2257,
      "53": 2258,
      "Ġtelevi": 2259,
      "Äįku": 2260,
      "ler": 2261,
      "Ġnahra": 2262,
      "ace": 2263,
      "ĠvÄįetnÄĽ": 2264,
      "ĠpÅĻev": 2265,
      "Ġdce": 2266,
      "58": 2267,
      "ĠprÃ¡ce": 2268,
      "ĠpoprvÃ©": 2269,
      "sek": 2270,
      "Ġsvat": 2271,
      "ĠstÅĻÃŃ": 2272,
      "54": 2273,
      "tka": 2274,
      "ÅĻich": 2275,
      "Ġnakonec": 2276,
      "ĠpoÄįÃŃ": 2277,
      "fri": 2278,
      "Å¡ka": 2279,
      "Ġkate": 2280,
      "Ġobra": 2281,
      "itul": 2282,
      "Ġtomto": 2283,
      "ĠVes": 2284,
      "ik": 2285,
      "ady": 2286,
      "ĠnÃ¡zv": 2287,
      "83": 2288,
      "die": 2289,
      "kÃ¡nÃŃ": 2290,
      "Ġsamostat": 2291,
      "ĠklÃ¡Å¡": 2292,
      "mem": 2293,
      "ĠOdkazy": 2294,
      "ĠNew": 2295,
      "ÄįnÃŃho": 2296,
      "hlÃŃ": 2297,
      "ĠPol": 2298,
      "Ġvr": 2299,
      "dÅ¯": 2300,
      "ĠsvÃ½m": 2301,
      "ĠtÄĽÅ¾": 2302,
      "lek": 2303,
      "Ġsty": 2304,
      "ĠumoÅ¾": 2305,
      "ĠrovnÄĽ": 2306,
      "ĠVla": 2307,
      "demi": 2308,
      "mÃ©nÄĽ": 2309,
      "ÃŃdla": 2310,
      "ĠtÃ©mÄĽÅĻ": 2311,
      "dyÅ¾": 2312,
      "Ko": 2313,
      "dala": 2314,
      "ĠproblÃ©": 2315,
      "56": 2316,
      "ĠkrÃ¡lovstvÃŃ": 2317,
      "ĠrovnÄĽÅ¾": 2318,
      "peÄį": 2319,
      "ĠSta": 2320,
      "mentu": 2321,
      "63": 2322,
      "Ġsym": 2323,
      "Ġbude": 2324,
      "Ġseri": 2325,
      "ĠrÅ¯znÃ½ch": 2326,
      "ĠDu": 2327,
      "ĠpomÄĽ": 2328,
      "ĠBri": 2329,
      "Ġkilo": 2330,
      "nce": 2331,
      "ĠpoÄįet": 2332,
      "Ġvys": 2333,
      "Ġzach": 2334,
      "hÃ©": 2335,
      "ĠÃºÄįast": 2336,
      "Ġbit": 2337,
      "ĠPrvnÃŃ": 2338,
      "Ġbrit": 2339,
      "lovÄĽ": 2340,
      "ÄįÅ¯": 2341,
      "ĠdÅĻe": 2342,
      "tice": 2343,
      "Ġpoto": 2344,
      "Ma": 2345,
      "volu": 2346,
      "kod": 2347,
      "roz": 2348,
      "nat": 2349,
      "ĠovÅ¡em": 2350,
      "mÃŃr": 2351,
      "pt": 2352,
      "Ġdru": 2353,
      "ital": 2354,
      "ĠPar": 2355,
      "skem": 2356,
      "ĠÃºÅĻad": 2357,
      "Ġhud": 2358,
      "Ġti": 2359,
      "Ġbar": 2360,
      "ĠPÅĻÃŃ": 2361,
      "ĠGe": 2362,
      "pla": 2363,
      "ĠmÄĽstÄĽ": 2364,
      "ĠcÃŃsaÅĻ": 2365,
      "ismu": 2366,
      "Ġznovu": 2367,
      "Ġspojen": 2368,
      "Ġsoci": 2369,
      "ĠSpojen": 2370,
      "ÅĻesÅ¥": 2371,
      "ĠMon": 2372,
      "62": 2373,
      "ĠÅ½i": 2374,
      "ĠstranÄĽ": 2375,
      "ĠpÅĻedse": 2376,
      "rom": 2377,
      "ĠvÃ½stav": 2378,
      "Ġzaji": 2379,
      "ĠpÅĻij": 2380,
      "Ġnav": 2381,
      "mysl": 2382,
      "Praha": 2383,
      "Ġdat": 2384,
      "ĠzpÄĽ": 2385,
      "In": 2386,
      "anÃ¡": 2387,
      "cela": 2388,
      "star": 2389,
      "Ġreprezen": 2390,
      "57": 2391,
      "ĠpodÃŃ": 2392,
      "Ġminu": 2393,
      "Ġgra": 2394,
      "lex": 2395,
      "kÃ©ho": 2396,
      "lÃ¡nÃŃ": 2397,
      "io": 2398,
      "iro": 2399,
      "ĠzvÃŃ": 2400,
      "telÃ©": 2401,
      "ers": 2402,
      "ĠnÃ¡boÅ¾en": 2403,
      "lÃ³": 2404,
      "ÅĻit": 2405,
      "ĠnÃ¡zvem": 2406,
      "stavÄĽ": 2407,
      "zena": 2408,
      "Å½ivo": 2409,
      "mil": 2410,
      "hli": 2411,
      "ĠstÅĻed": 2412,
      "cÃ©": 2413,
      "ris": 2414,
      "pozi": 2415,
      "terÃ¡": 2416,
      "Ġmez": 2417,
      "..": 2418,
      "run": 2419,
      "tou": 2420,
      "Å¾ito": 2421,
      "dech": 2422,
      "ĠGu": 2423,
      "ĠnÃ¡rod": 2424,
      "Ġspeci": 2425,
      "Ã¡ly": 2426,
      "Ġstanice": 2427,
      "cenÃŃ": 2428,
      "Ġobci": 2429,
      "Ġhy": 2430,
      "ĠstÃ¡le": 2431,
      "che": 2432,
      "zor": 2433,
      "cent": 2434,
      "ĠWil": 2435,
      "ĠromÃ¡": 2436,
      "skÃ©mu": 2437,
      "ĠbÃŃ": 2438,
      "Ġkolo": 2439,
      "Ġkoste": 2440,
      ".cz": 2441,
      "ĠstÅĻednÃŃ": 2442,
      "ĠprvnÃŃm": 2443,
      ")||": 2444,
      "ĠÄįÃŃ": 2445,
      "ĠÅĻÃŃÅ¡e": 2446,
      "Ġnez": 2447,
      "nila": 2448,
      "59": 2449,
      "nan": 2450,
      "Ġtitul": 2451,
      "ĠHor": 2452,
      "ĠSÃŃdla": 2453,
      "ĠTa": 2454,
      "ĠzÃ¡kon": 2455,
      "ĠsÃ©": 2456,
      "ĠmoÅ¾nÃ©": 2457,
      "ĠprostÅĻedÃŃ": 2458,
      "skyt": 2459,
      "dejÅ¡ÃŃ": 2460,
      "ĠÄįlenem": 2461,
      "Ġfilmu": 2462,
      "Ġukon": 2463,
      "ĠdÅ¯vod": 2464,
      "Ġmlad": 2465,
      "ĠudÃ¡": 2466,
      "ĠpraÅ¾": 2467,
      "ckÃ½mi": 2468,
      "rovstvÃŃ": 2469,
      "land": 2470,
      "bliÅ¾nÄĽ": 2471,
      "Ġkli": 2472,
      "ÄĽjÅ¡ÃŃ": 2473,
      "olf": 2474,
      "Ġdis": 2475,
      "Ġhospod": 2476,
      "ĠzahÃ¡": 2477,
      "anov": 2478,
      "rÃ¡lnÃŃ": 2479,
      "ĠnabÃŃ": 2480,
      "ĠmusÃŃ": 2481,
      "kami": 2482,
      "ĠzÃ¡pas": 2483,
      "tak": 2484,
      "Ġtyto": 2485,
      "arak": 2486,
      "Vz": 2487,
      "ovanÃ¡": 2488,
      "enci": 2489,
      "ĠtÅĻetÃŃ": 2490,
      "dra": 2491,
      "ĠÄĮesku": 2492,
      "Ġzahr": 2493,
      "ĠnÃ¡sledujÃŃcÃŃ": 2494,
      "ĠdÃ©l": 2495,
      "ĠumÄĽnÃŃ": 2496,
      "ÄįemÅ¾": 2497,
      "Pa": 2498,
      "ĠEvropy": 2499,
      "ĠIII": 2500,
      "Ġpozi": 2501,
      "kÅ¯m": 2502,
      "Ġjih": 2503,
      "ĠPaÅĻÃŃ": 2504,
      "ĠzatÃŃm": 2505,
      "rÃ¡Å¾": 2506,
      "vol": 2507,
      "VÄĽ": 2508,
      "ĠPav": 2509,
      "orf": 2510,
      "chi": 2511,
      "Äįa": 2512,
      "ĠpostupnÄĽ": 2513,
      "Ġfinan": 2514,
      "Ġgener": 2515,
      "Tak": 2516,
      "cko": 2517,
      "Ġdef": 2518,
      "Ã¡lnÃŃm": 2519,
      "Tato": 2520,
      "har": 2521,
      "Ġposla": 2522,
      "eni": 2523,
      "nii": 2524,
      "Ġekonomi": 2525,
      "pou": 2526,
      "Ġdnes": 2527,
      "Ġpoku": 2528,
      "dÃ¡l": 2529,
      "Ã©r": 2530,
      "ĠblÃŃz": 2531,
      "vin": 2532,
      "Ġneu": 2533,
      "vit": 2534,
      "ĠnÃŃÅ¾": 2535,
      "ÅĻem": 2536,
      "bus": 2537,
      "Ġvl": 2538,
      "Ġcharak": 2539,
      "Ġlete": 2540,
      "ĠpÅĻiÄįemÅ¾": 2541,
      "ĠvyhlÃ¡": 2542,
      "lej": 2543,
      "vÃ©d": 2544,
      "puÅ¡tÄĽ": 2545,
      "ĠÅĺe": 2546,
      "ĠmÃ©": 2547,
      "ĠnÄĽkterÃ©": 2548,
      "Ġklasi": 2549,
      "Ġha": 2550,
      "ona": 2551,
      "ĠokolÃŃ": 2552,
      "ĠvÄĽn": 2553,
      "Ġevrop": 2554,
      "Kon": 2555,
      "ĠtisÃŃ": 2556,
      "ĠnezÃ¡": 2557,
      "ĠMarie": 2558,
      "ĠMora": 2559,
      "xu": 2560,
      "pust": 2561,
      "ĠKra": 2562,
      "Ġtypu": 2563,
      "Äįila": 2564,
      "Ġskupina": 2565,
      "ĠobÄįan": 2566,
      "ĠdosÃ¡": 2567,
      "Ġzru": 2568,
      "ĠkrÃ¡le": 2569,
      "ĠzemÄĽdÄĽl": 2570,
      "kol": 2571,
      "metrÅ¯": 2572,
      "ĠurÄįit": 2573,
      "ĠStar": 2574,
      "ĠpÅ¯vodnÃŃ": 2575,
      "ÄĽj": 2576,
      "Ġmnoha": 2577,
      "ĠnÃ¡mÄĽ": 2578,
      "ĠpravdÄĽpodob": 2579,
      "ĠnejvyÅ¡Å¡ÃŃ": 2580,
      "Ġdes": 2581,
      "dolÃŃ": 2582,
      "ĠRakou": 2583,
      "prava": 2584,
      "ĠPan": 2585,
      "Ġsitu": 2586,
      "mov": 2587,
      "ĠÃºda": 2588,
      "Ġvliv": 2589,
      "Ġpoh": 2590,
      "napÅĻ": 2591,
      "our": 2592,
      "zaci": 2593,
      "ĠstÃ¡tnÃŃ": 2594,
      "ĠprobÃŃ": 2595,
      "ĠvyrÃ¡": 2596,
      "ĠjeÅ¾": 2597,
      "ĠStÅĻe": 2598,
      "ĠpÅĻÃŃpadÄĽ": 2599,
      "rig": 2600,
      "car": 2601,
      "PÅĻed": 2602,
      "ĠmÃŃstnÃŃ": 2603,
      "ĠSi": 2604,
      "ĠMal": 2605,
      "ÅĻena": 2606,
      "rus": 2607,
      "ĠvzdÃ¡l": 2608,
      "bÄĽhu": 2609,
      "Å¾dy": 2610,
      "Ġolympi": 2611,
      "Ġpubli": 2612,
      "opis": 2613,
      "ologie": 2614,
      "Ġfe": 2615,
      "tku": 2616,
      "KdyÅ¾": 2617,
      "ĠÅ¡koly": 2618,
      "ĠkrÃ¡l": 2619,
      "rovi": 2620,
      "ĠPi": 2621,
      "est": 2622,
      "ÅĻesÅ¥an": 2623,
      "yna": 2624,
      "Ġtro": 2625,
      "Ġshro": 2626,
      "ĠcÃŃrk": 2627,
      "Å¡la": 2628,
      "Ġuzav": 2629,
      "Ġr": 2630,
      "ĠpÃŃsem": 2631,
      "ĠvolbÃ¡ch": 2632,
      "ĠKu": 2633,
      "ĠknÃŃ": 2634,
      "Ġobvykle": 2635,
      "Ġostrov": 2636,
      "Ġverze": 2637,
      "org": 2638,
      "kademi": 2639,
      "ovanÃ½ch": 2640,
      "NÄĽk": 2641,
      "ĠreÅ¾i": 2642,
      "mek": 2643,
      "Ġklub": 2644,
      "ĠstÃ¡tu": 2645,
      "Ġfilo": 2646,
      "nÄĽn": 2647,
      "zerva": 2648,
      "Ġmuze": 2649,
      "Ġpev": 2650,
      "emokra": 2651,
      "Ġpol": 2652,
      "Jako": 2653,
      "Ġda": 2654,
      "lÃ½ch": 2655,
      "ĠobcÃŃ": 2656,
      "DÃŃ": 2657,
      "odnÃŃ": 2658,
      "hel": 2659,
      "cu": 2660,
      "Åĺ": 2661,
      "anu": 2662,
      "ert": 2663,
      "Ġnik": 2664,
      "ĠsystÃ©mu": 2665,
      "Å¾nÃ©": 2666,
      "Ġsebe": 2667,
      "oun": 2668,
      "Ġokra": 2669,
      "Ġzcela": 2670,
      "ĠdÃ¡l": 2671,
      "obÄĽ": 2672,
      "Ġup": 2673,
      "eli": 2674,
      "Ġnepo": 2675,
      "hru": 2676,
      "Ji": 2677,
      "vÃ¡dÃŃ": 2678,
      "Ġnejlep": 2679,
      "oni": 2680,
      "ĠÅ¾idov": 2681,
      "Å¡ti": 2682,
      "Ġteplo": 2683,
      "ĠzemÅĻel": 2684,
      "koliv": 2685,
      "ĠjinÃ½ch": 2686,
      "drÅ¾": 2687,
      "kali": 2688,
      "penÃŃ": 2689,
      "Ġochra": 2690,
      "Ġparla": 2691,
      "zuje": 2692,
      "ĠpÅ¯vodnÄĽ": 2693,
      "ĠsvÃ©m": 2694,
      "rab": 2695,
      "Ġzby": 2696,
      "Ġbudou": 2697,
      "Ġ:": 2698,
      "ĠÅĻeky": 2699,
      "Ġtran": 2700,
      "ĠpÅ¯sobil": 2701,
      "ĠzÃ¡klad": 2702,
      "Ġprove": 2703,
      "rid": 2704,
      "Ġroky": 2705,
      "ĠJana": 2706,
      "ovÃ½mi": 2707,
      "Ġjiho": 2708,
      "Ġkriti": 2709,
      "ĠÄįele": 2710,
      "Ġboh": 2711,
      "hledem": 2712,
      "Ġvody": 2713,
      "ĠvÄĽtÅ¡inou": 2714,
      "ĠzaÄįala": 2715,
      "Ġdobu": 2716,
      "ĠpÅĻibliÅ¾nÄĽ": 2717,
      "Ġmateri": 2718,
      "ĠskuteÄį": 2719,
      "nka": 2720,
      "Ġostro": 2721,
      "mÃŃnka": 2722,
      "sal": 2723,
      "ĠdÄĽj": 2724,
      "onÅ¯": 2725,
      "ĠLo": 2726,
      "ere": 2727,
      "ÄĽnÃŃ": 2728,
      "kal": 2729,
      "Ġrodu": 2730,
      "Ġobvod": 2731,
      "Ġmaje": 2732,
      "Ġfunkci": 2733,
      "chov": 2734,
      "snÃŃ": 2735,
      "adi": 2736,
      "ĠstejnÄĽ": 2737,
      "Ġfyzi": 2738,
      "ĠpÅĻÃŃrodnÃŃ": 2739,
      "hal": 2740,
      "Äįerv": 2741,
      "ĠdruhÅ¯": 2742,
      "krÃ¡t": 2743,
      "Ġjim": 2744,
      "klÃ¡dÃ¡": 2745,
      "ĠkÅĻi": 2746,
      "kat": 2747,
      "ĠÅ¡ÃŃ": 2748,
      "ÅĻila": 2749,
      "ĠpÅĻÃŃslu": 2750,
      "ral": 2751,
      "Ġroli": 2752,
      "ĠÅ¾elezniÄįnÃŃ": 2753,
      "Å¾dÄĽnÃŃ": 2754,
      "Ġalbum": 2755,
      "berg": 2756,
      "Ġarchitek": 2757,
      "ĠpÅĻevÃ¡": 2758,
      "Ġzt": 2759,
      "sen": 2760,
      "chÅ¯": 2761,
      "Ġsmlou": 2762,
      "ĠpoÄįÃ¡tku": 2763,
      "ĠpanstvÃŃ": 2764,
      "ĠzÃ¡kladÄĽ": 2765,
      "Ġkvali": 2766,
      "Ġchy": 2767,
      "ĠnezÃ¡vis": 2768,
      "tit": 2769,
      "bro": 2770,
      "Li": 2771,
      "rost": 2772,
      "ĠÄĮeÅ¡tÃŃ": 2773,
      "vanÃ©": 2774,
      "fici": 2775,
      "Ġcest": 2776,
      "ĠSu": 2777,
      "ĠÄĮR": 2778,
      "rian": 2779,
      "dru": 2780,
      "Ġome": 2781,
      "mar": 2782,
      "ĠCa": 2783,
      "ĠspoleÄįnÄĽ": 2784,
      "lon": 2785,
      "ĠTi": 2786,
      "leÅ¾ito": 2787,
      "Ġbiskup": 2788,
      "por": 2789,
      "ĠsvÄĽtÄĽ": 2790,
      "par": 2791,
      "Ġpi": 2792,
      "rb": 2793,
      "ĠtÃ¡": 2794,
      "elu": 2795,
      "Ġrozlo": 2796,
      "ĠJaro": 2797,
      "rich": 2798,
      "Ġim": 2799,
      "Ġnevy": 2800,
      "ĠJind": 2801,
      "ĠnÄĽkdy": 2802,
      "ĠnÃ¡ro": 2803,
      "dem": 2804,
      "ÃºÄį": 2805,
      "ĠpÅĻen": 2806,
      "ĠZem": 2807,
      "ĠprostÅĻed": 2808,
      "Ġ()": 2809,
      "ĠÄĮer": 2810,
      "ĠjejÃŃm": 2811,
      "kty": 2812,
      "ĠQ": 2813,
      "ĠpÅĻÃŃmo": 2814,
      "mob": 2815,
      "ĠPÅĻe": 2816,
      "jÃŃcÃŃch": 2817,
      "ĠzÃ¡roveÅĪ": 2818,
      "lomou": 2819,
      "ĠnachÃ¡ze": 2820,
      "ww": 2821,
      "ĠmlÃ¡": 2822,
      "zdÄĽji": 2823,
      "oro": 2824,
      "ĠdomÃ¡": 2825,
      "Âłpo": 2826,
      "graf": 2827,
      "Ġital": 2828,
      "kovÄĽ": 2829,
      "Ġener": 2830,
      "liny": 2831,
      "ĠÐ": 2832,
      "tiv": 2833,
      "Ġsport": 2834,
      "ĠÃºspÄĽÅ¡": 2835,
      "anÃ½": 2836,
      "ĠKarel": 2837,
      "ĠVÃ½": 2838,
      "kcÃŃ": 2839,
      "bsol": 2840,
      "Le": 2841,
      "mÃŃt": 2842,
      "ĠjednÃŃm": 2843,
      "stitu": 2844,
      "Ġut": 2845,
      "nÃ©mu": 2846,
      "Te": 2847,
      "net": 2848,
      "stava": 2849,
      "kovÃ½": 2850,
      "kaÅĻ": 2851,
      "Ġzdra": 2852,
      "ĠzÅĻÃŃ": 2853,
      "Ã¡k": 2854,
      "mit": 2855,
      "las": 2856,
      "ĠvyÅ¡Å¡ÃŃ": 2857,
      "Ġprovinci": 2858,
      "ĠshromÃ¡": 2859,
      "ĠzastÃ¡": 2860,
      "smus": 2861,
      "kosti": 2862,
      "Ġen": 2863,
      "Ġpri": 2864,
      "zeÅĪ": 2865,
      "Ġoblast": 2866,
      "ance": 2867,
      "ĠÄĮÃŃ": 2868,
      "ĠhÅĻ": 2869,
      "ĠrozdÃŃl": 2870,
      "ĠstrÃ¡nky": 2871,
      "ĠsevernÃŃ": 2872,
      "Proto": 2873,
      "kup": 2874,
      "dÄĽj": 2875,
      "ĠCar": 2876,
      "Ġpovrch": 2877,
      "vÅ¡ak": 2878,
      "ki": 2879,
      "stem": 2880,
      "ĠvÃ©": 2881,
      "Ġvyj": 2882,
      "Ġkamen": 2883,
      "ĠAnd": 2884,
      "Ġspisovatel": 2885,
      "onÃ¡lnÃŃ": 2886,
      "ros": 2887,
      "Ġprost": 2888,
      "Ġobjev": 2889,
      "ĠvÃ½sled": 2890,
      "nal": 2891,
      "ĠTu": 2892,
      "PotÃ©": 2893,
      "mal": 2894,
      "Ġsevero": 2895,
      "ĠspoleÄįen": 2896,
      "ĠMart": 2897,
      "praven": 2898,
      "Ġhle": 2899,
      "pol": 2900,
      "JejÃŃ": 2901,
      "ĠroÄįnÃŃ": 2902,
      "stnÃŃ": 2903,
      "Ġmeto": 2904,
      "dnÃŃho": 2905,
      "ĠprÃ¡vÄĽ": 2906,
      "zÃŃch": 2907,
      "jÅ¯": 2908,
      "Ġkonstru": 2909,
      "hÅ¯": 2910,
      "Å¾Å¡ÃŃ": 2911,
      "Ġdokonce": 2912,
      "Ġpojmen": 2913,
      "denÃŃ": 2914,
      "ĠÄįeskÃ½ch": 2915,
      "ĠmezinÃ¡rodnÃŃ": 2916,
      "rke": 2917,
      "ovÃ¡nÃŃm": 2918,
      "ĠFranci": 2919,
      "Ġdese": 2920,
      "rej": 2921,
      "ĠHar": 2922,
      "ĠnÃ¡vr": 2923,
      "ĠHer": 2924,
      "ĠAngli": 2925,
      "Ġfar": 2926,
      "ovu": 2927,
      "ĠnichÅ¾": 2928,
      "poru": 2929,
      "sau": 2930,
      "ĠzvÃ½": 2931,
      "tÅĻe": 2932,
      "ĠpoÄįÃŃta": 2933,
      "Ġpopis": 2934,
      "ĠÅ½id": 2935,
      "ĠuÅ¾ÃŃ": 2936,
      "dnÃŃch": 2937,
      "ĠzmÃŃnka": 2938,
      "tin": 2939,
      "Ġpop": 2940,
      "slov": 2941,
      "ĠÄįtvr": 2942,
      "ĠzaÄįÃŃ": 2943,
      "Ġcelkem": 2944,
      "Ġtam": 2945,
      "Ġlu": 2946,
      "ĠNo": 2947,
      "Ġdosa": 2948,
      "Ġpoda": 2949,
      "Ġtre": 2950,
      "ĠzaÅĻÃŃzenÃŃ": 2951,
      "ĠvzdÄĽ": 2952,
      "anou": 2953,
      "ĠpolovinÄĽ": 2954,
      "Ã³n": 2955,
      "itel": 2956,
      "Ã¡ch": 2957,
      "Ġslav": 2958,
      "tury": 2959,
      "opak": 2960,
      "Äıar": 2961,
      "lii": 2962,
      "kona": 2963,
      "Dne": 2964,
      "Ġfotbal": 2965,
      "Â²": 2966,
      "Ġkraji": 2967,
      "hrad": 2968,
      "kovÃ½ch": 2969,
      "Äįin": 2970,
      "Ġper": 2971,
      "Ġzvolen": 2972,
      "Ġstru": 2973,
      "ĠVÃŃ": 2974,
      "Ġelektro": 2975,
      "Ġtato": 2976,
      "mes": 2977,
      "Ġtehdy": 2978,
      "ĠzpÄĽt": 2979,
      "Ġsilnice": 2980,
      "ĠAlex": 2981,
      "pravi": 2982,
      "ĠvÃ½zku": 2983,
      "ĠkterÃ©m": 2984,
      "kraj": 2985,
      "Ġzahrnu": 2986,
      "dila": 2987,
      "Å½ivot": 2988,
      "Ġkar": 2989,
      "ĠPor": 2990,
      "Ġjednoho": 2991,
      "vnÃŃch": 2992,
      "ĠBy": 2993,
      "ell": 2994,
      "Ġnor": 2995,
      "Ġtvor": 2996,
      "ĠsnÄĽ": 2997,
      "ĠFer": 2998,
      "ĠpÅĻÃŃstup": 2999,
      "Ġmeda": 3000,
      "spe": 3001,
      "ĠÃºstav": 3002,
      "Ġpok": 3003,
      "ĠSan": 3004,
      "ĠRob": 3005,
      "ĠÃºdolÃŃ": 3006,
      "anÃ½ch": 3007,
      "elen": 3008,
      "Ġsla": 3009,
      "Ġhry": 3010,
      "ĠMat": 3011,
      "kÃ½m": 3012,
      "Å¾ila": 3013,
      "ĠÅ¾Ã¡": 3014,
      "ĠsbÃŃ": 3015,
      "inÃ¡ch": 3016,
      "ĠpÅĻevÃ¡Å¾nÄĽ": 3017,
      "nÃ¡ch": 3018,
      "Ġfunkce": 3019,
      "ĠYor": 3020,
      "Ġorganizace": 3021,
      "MÄĽ": 3022,
      "ĠDav": 3023,
      "menÃŃ": 3024,
      "Ġpokud": 3025,
      "Äįena": 3026,
      "Ġcyk": 3027,
      "ĠumÄĽle": 3028,
      "Âłob": 3029,
      "ĠneboÅ¥": 3030,
      "jnÃŃ": 3031,
      "Â°": 3032,
      "odÃŃ": 3033,
      "Ġodvo": 3034,
      "Ġgene": 3035,
      "dÄĽlenÃŃ": 3036,
      "Al": 3037,
      "tÃ½": 3038,
      "ĠsÃ¡m": 3039,
      "ĠDa": 3040,
      "ĠdÅ¯leÅ¾it": 3041,
      "Ġdvo": 3042,
      "Ġfakul": 3043,
      "Ġdruhy": 3044,
      "Ġletad": 3045,
      "Ġsymbo": 3046,
      "Ġobou": 3047,
      "Ġvybud": 3048,
      "ĠnÃ¡slednÄĽ": 3049,
      "Ġnic": 3050,
      "ham": 3051,
      "ĠhospodÃ¡ÅĻ": 3052,
      "sud": 3053,
      "Ġtechni": 3054,
      "klady": 3055,
      "jedno": 3056,
      "Ġzob": 3057,
      "Ġvyskytu": 3058,
      "rna": 3059,
      "Ġuveden": 3060,
      "Ġobsahuje": 3061,
      "Ġzni": 3062,
      "leb": 3063,
      "ÃŃÅ¡e": 3064,
      "lina": 3065,
      "ĠVÃ¡clav": 3066,
      "ĠmenÅ¡ÃŃ": 3067,
      "ĠPl": 3068,
      "Cel": 3069,
      "din": 3070,
      "ĠvyrÃ¡bÄĽ": 3071,
      "ĠlÃŃ": 3072,
      "ÄįÃ¡": 3073,
      "ĠoznaÄįenÃŃ": 3074,
      "Ġfi": 3075,
      "ĠvÃ½rob": 3076,
      "ĠhlavnÄĽ": 3077,
      "ĠÅ¡lech": 3078,
      "Ġon": 3079,
      "ĠhvÄĽz": 3080,
      "vrt": 3081,
      "ĠstÃ¡tÅ¯": 3082,
      "ĠpohÃ¡": 3083,
      "ĠscÃ©": 3084,
      "ĠvÅ¾dy": 3085,
      "ĠknÃŃÅ¾e": 3086,
      "Ġuli": 3087,
      "Ġkry": 3088,
      "ĠpoÅ¡": 3089,
      "Ġtoto": 3090,
      "ĠEvropÄĽ": 3091,
      "ĠÄįÃ¡stÃŃ": 3092,
      "cÃŃho": 3093,
      "ĠnÃ¡moÅĻ": 3094,
      "ĠÅ¡est": 3095,
      "ĠbrÃ¡": 3096,
      "rand": 3097,
      "Ġkr": 3098,
      "ĠjiÅ¾nÃŃ": 3099,
      "strÃ¡": 3100,
      "Ġsvobod": 3101,
      "zeny": 3102,
      "Ġpsy": 3103,
      "ĠSever": 3104,
      "desÃ¡t": 3105,
      "ĠvytvÃ¡": 3106,
      "Ġpravidel": 3107,
      "ĠkÅĻesÅ¥an": 3108,
      "Âłd": 3109,
      "stÅĻed": 3110,
      "ker": 3111,
      "Ġolympij": 3112,
      "ĠÅĻÃ¡": 3113,
      "ger": 3114,
      "Ġsub": 3115,
      "Ġdostal": 3116,
      "ski": 3117,
      "ĠItÃ¡": 3118,
      "Ġprofes": 3119,
      "Ġkam": 3120,
      "br": 3121,
      "ĠRud": 3122,
      "ĠÅ¾ilo": 3123,
      "vÄĽd": 3124,
      "ĠsmÄĽrem": 3125,
      "vel": 3126,
      "lub": 3127,
      "ĠotevÅĻen": 3128,
      "mÄĽti": 3129,
      "Ġmar": 3130,
      "ĠAnto": 3131,
      "Ġepi": 3132,
      "ĠPer": 3133,
      "Ġpode": 3134,
      "-li": 3135,
      "ĠjmÃ©na": 3136,
      "kovou": 3137,
      "Ġjednotliv": 3138,
      "ĠFrantiÅ¡ek": 3139,
      "ĠSte": 3140,
      "Ġpoho": 3141,
      "ĠMan": 3142,
      "Ġmate": 3143,
      "ĠpobÅĻe": 3144,
      "konstru": 3145,
      "Ġzra": 3146,
      "Ġprosto": 3147,
      "ĠmoÅĻe": 3148,
      "ĠdÃŃla": 3149,
      "Ġzkou": 3150,
      "lÃ¡n": 3151,
      "tivnÄĽ": 3152,
      "Ġrek": 3153,
      "ĠnÃ¡z": 3154,
      "ĠNej": 3155,
      "Ġset": 3156,
      "zni": 3157,
      "Ġvedou": 3158,
      "ĠzÃŃskala": 3159,
      "Å¡et": 3160,
      "Ġsklad": 3161,
      "Ġpara": 3162,
      "ĠNor": 3163,
      "ĠnÃ¡stup": 3164,
      "ĠvÃ½chodnÃŃ": 3165,
      "ĠnovÄĽ": 3166,
      ".âĢľ": 3167,
      "dat": 3168,
      "ĠpÅĻedmÄĽ": 3169,
      "ĠPrahy": 3170,
      "ĠOficiÃ¡lnÃŃ": 3171,
      "jnÄĽ": 3172,
      "zek": 3173,
      "dnes": 3174,
      "Ġzbra": 3175,
      "ĠBi": 3176,
      "ĠÄįÃŃm": 3177,
      "ÃºÄįast": 3178,
      "Ġet": 3179,
      "ĠOr": 3180,
      "Ġzji": 3181,
      "Ġprovo": 3182,
      "peÅ¾": 3183,
      "ÄįnÃ½": 3184,
      "ĠÃºÄįin": 3185,
      "Ġzave": 3186,
      "ĠzamÄĽst": 3187,
      "ĠÅ¡iro": 3188,
      "int": 3189,
      "alerie": 3190,
      "Ġdemokra": 3191,
      "ĠGa": 3192,
      "ĠpoÅĻad": 3193,
      "Ġvybav": 3194,
      "ĠÅĻÃ¡d": 3195,
      "tickÃ¡": 3196,
      "ĠVesnice": 3197,
      "Ġri": 3198,
      "fo": 3199,
      "valo": 3200,
      "dale": 3201,
      "nÃŃmi": 3202,
      "Ġvyv": 3203,
      "Ġpora": 3204,
      "Ġnut": 3205,
      "nÃŃku": 3206,
      "Ġvznikla": 3207,
      "ilu": 3208,
      "ĠmÄĽlo": 3209,
      "ĠKan": 3210,
      "ĠmalÃŃ": 3211,
      "ĠdÅĻÃŃve": 3212,
      "Âłle": 3213,
      "ĠzatÃŃmco": 3214,
      "ĠprÃ¡va": 3215,
      "Ġhrad": 3216,
      "kan": 3217,
      "uro": 3218,
      "ph": 3219,
      "ĠsklÃ¡": 3220,
      "ĠVil": 3221,
      "ĠslouÅ¾ÃŃ": 3222,
      "Ġply": 3223,
      "Ġdoku": 3224,
      "cti": 3225,
      "ĠshromÃ¡Å¾dÄĽnÃŃ": 3226,
      "ĠÄįÃŃslo": 3227,
      "hruba": 3228,
      "Ġtva": 3229,
      "vka": 3230,
      "lÃŃn": 3231,
      "Ġsloven": 3232,
      "stÄĽji": 3233,
      "sed": 3234,
      "Ġturna": 3235,
      "KromÄĽ": 3236,
      "Ġkatego": 3237,
      "Ġoce": 3238,
      "bali": 3239,
      "ĠarmÃ¡dy": 3240,
      "ĠVladi": 3241,
      "Ġodbor": 3242,
      "fÃ©": 3243,
      "ĠpovÄĽ": 3244,
      "Ġvstup": 3245,
      "roval": 3246,
      "ÂłH": 3247,
      "dia": 3248,
      "pravy": 3249,
      "lÃ¡rnÃŃ": 3250,
      "Sa": 3251,
      "ĠmÄĽly": 3252,
      "stÄĽh": 3253,
      "Ġbr": 3254,
      "ĠjihovÃ½ch": 3255,
      "ĠrÅ¯znÃ©": 3256,
      "ĠtehdejÅ¡ÃŃ": 3257,
      "ley": 3258,
      "NachÃ¡zÃŃ": 3259,
      "Âłroku": 3260,
      "ĠzaÄįÃ¡tku": 3261,
      "ĠhnutÃŃ": 3262,
      "stoupi": 3263,
      "Ġsamot": 3264,
      "ĠpÄĽti": 3265,
      "ĠvojÃ¡": 3266,
      "rev": 3267,
      "Ġjednou": 3268,
      "ĠvÃ½voj": 3269,
      "Ġopera": 3270,
      "Ġtuto": 3271,
      "Ġreali": 3272,
      "Äįer": 3273,
      "Ġnavr": 3274,
      "Ġelektri": 3275,
      "lavnÃŃ": 3276,
      "ĠÅĻedi": 3277,
      "PÅ¯vod": 3278,
      "Ġmoc": 3279,
      "Ġvzdu": 3280,
      "ĠuÄįi": 3281,
      "klo": 3282,
      "riÃŃ": 3283,
      "ĠkterÃ½m": 3284,
      "cy": 3285,
      "dÃ©": 3286,
      "ĠMas": 3287,
      "ĠÅĺÃŃ": 3288,
      "ĠjmÃ©nem": 3289,
      "Ġbe": 3290,
      "eme": 3291,
      "Ġobnov": 3292,
      "ÅĻÃ¡tel": 3293,
      "ĠÄįlovÄĽ": 3294,
      "ĠnÃ¡mÄĽstÃŃ": 3295,
      "ĠGo": 3296,
      "Ġstat": 3297,
      "Ġmon": 3298,
      "red": 3299,
      "vÃ½car": 3300,
      "Ġplat": 3301,
      "Ġkandi": 3302,
      "Ġhu": 3303,
      "Ġanti": 3304,
      "xist": 3305,
      "Å¡len": 3306,
      "vÃŃc": 3307,
      "hlÃ©": 3308,
      "Ġkomi": 3309,
      "ĠTÅĻe": 3310,
      "sie": 3311,
      "Ã¡lnÃŃho": 3312,
      "ĠsvatÃ©ho": 3313,
      "Ġreak": 3314,
      "ĠjednÃ©": 3315,
      "ĠnovÃ½": 3316,
      "nÄĽjÅ¡ÃŃch": 3317,
      "ĠpÅĻelo": 3318,
      "ĠpoÅ¾ad": 3319,
      "aku": 3320,
      "ĠCon": 3321,
      "Ġnebyl": 3322,
      "Ġpozem": 3323,
      "ĠtÅĻÃŃdy": 3324,
      "Ġsouvis": 3325,
      "ĠsouÄįasnosti": 3326,
      "Ġkontro": 3327,
      "ĠStra": 3328,
      "tal": 3329,
      "Mi": 3330,
      "Ġprote": 3331,
      "ĠzÃŃskÃ¡": 3332,
      "ĠurÄįen": 3333,
      "Ġkmen": 3334,
      "Ġrevolu": 3335,
      "jil": 3336,
      "Ġmohl": 3337,
      "Ġzemi": 3338,
      "lava": 3339,
      "ĠavÅ¡ak": 3340,
      "ĠÄįasopis": 3341,
      "ĠvyuÅ¾ÃŃvÃ¡": 3342,
      "ĠpÄĽt": 3343,
      "Tyto": 3344,
      "enÃ½": 3345,
      "ĠÅĻada": 3346,
      "Ġrakou": 3347,
      "ĠstojÃŃ": 3348,
      "tory": 3349,
      "ĠSeznam": 3350,
      "ice": 3351,
      "Ð°": 3352,
      "vem": 3353,
      "ĠotÃ¡": 3354,
      "ĠFor": 3355,
      "ĠBrno": 3356,
      "Å¡ky": 3357,
      "ĠvydÃ¡nÃŃ": 3358,
      "pÅĻÃŃ": 3359,
      "Ġokolo": 3360,
      "ĠzÃ¡padnÃŃ": 3361,
      "ĠÅ¡kola": 3362,
      "ĠEn": 3363,
      "ĠstÄĽ": 3364,
      "Ġprakti": 3365,
      "ĠovlÃ¡": 3366,
      "ĠzprÃ¡": 3367,
      "nÄĽnÃ©": 3368,
      "ĠDol": 3369,
      "ĠpÃŃsemnÃ¡": 3370,
      "mech": 3371,
      "Ġbaro": 3372,
      "vid": 3373,
      "Ġkro": 3374,
      "starÅ¡ÃŃ": 3375,
      "Ġlitera": 3376,
      "ĠVal": 3377,
      "ĠstarÅ¡ÃŃ": 3378,
      "Ġvzniku": 3379,
      "zeno": 3380,
      "vanÃ½": 3381,
      "slava": 3382,
      "Ġtri": 3383,
      "Ġchemi": 3384,
      "gal": 3385,
      "Ġstroj": 3386,
      "ĠĠĠĠĠ": 3387,
      "ĠrozsÃ¡": 3388,
      "ĠStu": 3389,
      "ĠÄįeskÃ©ho": 3390,
      "ĠzÃ¡vÄĽ": 3391,
      "ĠhlavnÃŃm": 3392,
      "Ġkomple": 3393,
      "Ġnejsou": 3394,
      "ĠpoÄįtu": 3395,
      "ĠLond": 3396,
      "ĠprÅ¯bÄĽhu": 3397,
      "ÅĻÅ¯": 3398,
      "ÅĻejmÄĽ": 3399,
      "der": 3400,
      "ktivnÃŃ": 3401,
      "ÅĻÃŃÅ¾": 3402,
      "ĠtÃ½mu": 3403,
      "Å¡tej": 3404,
      "Ġsko": 3405,
      "ĠRad": 3406,
      "jÃŃt": 3407,
      "rovÃ½chod": 3408,
      "Ġpotom": 3409,
      "ĠkterÃ½ch": 3410,
      "pce": 3411,
      "myslu": 3412,
      "ktÅ¯": 3413,
      "Ġpotra": 3414,
      "Ġdopl": 3415,
      "dÄĽjÅ¡ÃŃ": 3416,
      "ĠÅĺÃŃm": 3417,
      "ĠplÃ¡n": 3418,
      "psal": 3419,
      "ĠOs": 3420,
      "burg": 3421,
      "ĠcÃŃrke": 3422,
      "Ġjeze": 3423,
      "ÅĻili": 3424,
      "vanÃ¡": 3425,
      "mÃ½": 3426,
      "ĠdÄĽti": 3427,
      "ĠpravdÄĽpodobnÄĽ": 3428,
      "Ġautomob": 3429,
      "ĠLud": 3430,
      "Ġtabu": 3431,
      "tickÃ½": 3432,
      "ĠloÄı": 3433,
      "bili": 3434,
      "ĠjednÃ¡": 3435,
      "ĠdokÃ¡": 3436,
      "lia": 3437,
      "ĠpouÅ¾it": 3438,
      "Ten": 3439,
      "Ġprezident": 3440,
      "ĠnÃ¡stro": 3441,
      "Ġkostela": 3442,
      "//": 3443,
      "ĠnazÃ½vÃ¡": 3444,
      "Ġakademi": 3445,
      "Ġpreziden": 3446,
      "had": 3447,
      "Ġrepublice": 3448,
      "PozdÄĽji": 3449,
      "ĠnepÅĻÃŃ": 3450,
      "ĠpodaÅĻilo": 3451,
      "ĠmÃŃt": 3452,
      "ĠdÄĽdi": 3453,
      "Druh": 3454,
      "ĠzvlÃ¡": 3455,
      "ĠnÃŃm": 3456,
      "Å¡ov": 3457,
      "Äįuje": 3458,
      "vra": 3459,
      "Ġindi": 3460,
      "Ġdyna": 3461,
      "Ġbohat": 3462,
      "Ġbrat": 3463,
      "ĠSy": 3464,
      "ĠspÃŃÅ¡e": 3465,
      "boj": 3466,
      "zenÃ©": 3467,
      "avy": 3468,
      "ĠnÄĽmeckÃ©": 3469,
      "ĠFi": 3470,
      "ĠAfri": 3471,
      "Ġvrcho": 3472,
      "krÃ¡": 3473,
      "Ġzi": 3474,
      "ĠtakÅ¾e": 3475,
      "Å¡tinÄĽ": 3476,
      "Ġjednotky": 3477,
      "ĠvÄĽde": 3478,
      "Ġlat": 3479,
      "ĠJohn": 3480,
      "stÃ¡nÃŃ": 3481,
      "Ġtla": 3482,
      "Ġrodiny": 3483,
      "ĠAlexand": 3484,
      "ĠRi": 3485,
      "Ġfa": 3486,
      "nÄĽjÅ¡ÃŃm": 3487,
      "Ġ=": 3488,
      "ĠÅ¡kol": 3489,
      "ĠAt": 3490,
      "chodu": 3491,
      "ĠÄįtvrt": 3492,
      "ĠBen": 3493,
      "ĠÅ½ijÃŃcÃŃ": 3494,
      "Ġnu": 3495,
      "Ġhmot": 3496,
      "Ġny": 3497,
      "ĠSva": 3498,
      "ĠLou": 3499,
      "Ġvon": 3500,
      "ĠprÃ¡ci": 3501,
      "ĠHu": 3502,
      "ÅĻskÃ©": 3503,
      "Ġpodporu": 3504,
      "Pokud": 3505,
      "pÃ©": 3506,
      "tari": 3507,
      "Ġdom": 3508,
      "kladu": 3509,
      "Ġsyna": 3510,
      "vek": 3511,
      "drÅ¾e": 3512,
      "ĠkterÃ©ho": 3513,
      "Ġnejen": 3514,
      "ĠstÅĻedovÄĽ": 3515,
      "ĠobrÃ¡": 3516,
      "ĠâĢ": 3517,
      "ĠzÃ¡stup": 3518,
      "Ġvra": 3519,
      "spi": 3520,
      "ĠvysÃŃ": 3521,
      "ach": 3522,
      "Ġletou": 3523,
      "ĠpodmÃŃ": 3524,
      "ĠGra": 3525,
      "ĠsociÃ¡lnÃŃ": 3526,
      "Ġban": 3527,
      "Ġstrana": 3528,
      "terÃ©": 3529,
      "The": 3530,
      "ĠdÅ¯sled": 3531,
      "ĠsovÄĽt": 3532,
      "vyÅ¡": 3533,
      "Ġven": 3534,
      "zky": 3535,
      "dajÃŃ": 3536,
      "nej": 3537,
      "Ġcca": 3538,
      "ĠkÃ³": 3539,
      "ĠbÃ½vÃ¡": 3540,
      "Ġobraz": 3541,
      "ĠknÄĽ": 3542,
      "tila": 3543,
      "Ġtan": 3544,
      "sp": 3545,
      "ĠvrÃ¡til": 3546,
      "ĠkatastrÃ¡l": 3547,
      "seÅĪ": 3548,
      "ĠEvrop": 3549,
      "ĠBro": 3550,
      "tic": 3551,
      "ling": 3552,
      "ruÅ¡": 3553,
      "itÃ©": 3554,
      "ĠpÅ¯vodu": 3555,
      "ĠnazÃ½": 3556,
      "Ġuspo": 3557,
      "ĠtraÅ¥": 3558,
      "Ġrychle": 3559,
      "ans": 3560,
      "Ġtyp": 3561,
      "Ġnikdy": 3562,
      "ĠkilometrÅ¯": 3563,
      "Ġknihov": 3564,
      "Vel": 3565,
      "nÃŃkÅ¯": 3566,
      "Ġnemoc": 3567,
      "ĠdvÄĽma": 3568,
      "valy": 3569,
      "anis": 3570,
      "ĠvÃ©vod": 3571,
      "Ġmas": 3572,
      "kÃ©m": 3573,
      "ĠnavÃŃc": 3574,
      "ĠpÅ¯sobÃŃ": 3575,
      "Mo": 3576,
      "Ġkos": 3577,
      "ĠWe": 3578,
      "Ġ[": 3579,
      "ĠodmÃŃt": 3580,
      "ĠÄįinnost": 3581,
      "Ġdel": 3582,
      "VÄĽt": 3583,
      "kl": 3584,
      "Ġizrael": 3585,
      "ĠpÅĻÃŃliÅ¡": 3586,
      "ĠvÄĽku": 3587,
      "://": 3588,
      "teÄįnÄĽ": 3589,
      "dro": 3590,
      "ĠuÅ¾i": 3591,
      "komo": 3592,
      "ung": 3593,
      "vÃ½znam": 3594,
      "Ġzhruba": 3595,
      "Ġpracoval": 3596,
      "we": 3597,
      "Ã¡tnÃŃ": 3598,
      "ano": 3599,
      "ĠIV": 3600,
      "Ġdvoj": 3601,
      "ĠTur": 3602,
      "ves": 3603,
      "Ġpu": 3604,
      "ĠprÃ¡vo": 3605,
      "ĠznamenÃ¡": 3606,
      "Ġsedm": 3607,
      "livÃ©": 3608,
      "Ġ&": 3609,
      "ĠÅĻÃ¡du": 3610,
      "ĠPla": 3611,
      "Ġpremi": 3612,
      "ĠmÃ©nÄĽ": 3613,
      "Å¡eno": 3614,
      "nilo": 3615,
      "ĠvelkÃ½": 3616,
      "ĠKarlov": 3617,
      "ĠlÃ©kaÅĻ": 3618,
      "znamu": 3619,
      "ĠnÃ¡le": 3620,
      "Âłletech": 3621,
      "ĠbezpeÄį": 3622,
      "ĠSlov": 3623,
      "taci": 3624,
      "Ġprovozu": 3625,
      "Ġalba": 3626,
      "ĠJapon": 3627,
      "kladnÃŃ": 3628,
      "ĠzÃ¡vis": 3629,
      "ĠÄįÃŃmÅ¾": 3630,
      "krÃ©": 3631,
      "znamen": 3632,
      "nich": 3633,
      "ĠGi": 3634,
      "Ã¡tkem": 3635,
      "katoli": 3636,
      "ĠJindÅĻich": 3637,
      "ĠnahrÃ¡": 3638,
      "enu": 3639,
      "lel": 3640,
      "Ġrostlin": 3641,
      "DÃ¡le": 3642,
      "ĠnejlepÅ¡ÃŃ": 3643,
      "ĠCom": 3644,
      "ĠjihozÃ¡pad": 3645,
      "Ġklubu": 3646,
      "ĠdÄĽl": 3647,
      "ĠstÃŃ": 3648,
      "Ġsice": 3649,
      "ĠfÃ¡": 3650,
      "Ġstavu": 3651,
      "terna": 3652,
      "De": 3653,
      "Ð¾": 3654,
      "Å¾ili": 3655,
      "ĠsluÅ¾by": 3656,
      "ÄĽjiny": 3657,
      "Ġ/": 3658,
      "dago": 3659,
      "tÃ¡nÃŃ": 3660,
      "mon": 3661,
      "bez": 3662,
      "ĠKrÃ¡": 3663,
      "bec": 3664,
      "kaci": 3665,
      "hlas": 3666,
      "tov": 3667,
      "Ġzprac": 3668,
      "ĠÅłpanÄĽl": 3669,
      "ÅĻenÃ©": 3670,
      "Ġzapo": 3671,
      "ĠRy": 3672,
      "ned": 3673,
      "deÅĪ": 3674,
      "ĠÅĻady": 3675,
      "ĠdÃŃlo": 3676,
      "Ġkatoli": 3677,
      "ĠmÃŃsta": 3678,
      "ĠAd": 3679,
      "dali": 3680,
      "ĠvnitÅĻ": 3681,
      "ĠkromÄĽ": 3682,
      "ĠQu": 3683,
      "vÃŃce": 3684,
      "sunu": 3685,
      "Ġ×": 3686,
      "ĠpomÄĽrnÄĽ": 3687,
      "ĠvÃŃtÄĽzstvÃŃ": 3688,
      "pil": 3689,
      "Ġpodni": 3690,
      "nskÃ½": 3691,
      "jetÃŃ": 3692,
      "mÄĽjÅ¡ÃŃ": 3693,
      "Ġlety": 3694,
      "Å¾is": 3695,
      "stoletÃŃ": 3696,
      "Bo": 3697,
      "cia": 3698,
      "ĠvÄĽtÅ¡ina": 3699,
      "Ġskla": 3700,
      "oru": 3701,
      "ĠFrancie": 3702,
      "ĠvÃ½Å¡ce": 3703,
      "snÄĽ": 3704,
      "ĠMin": 3705,
      "stin": 3706,
      "Ġosm": 3707,
      "kÄįnÃŃ": 3708,
      "vÅ¯r": 3709,
      "ĠseriÃ¡lu": 3710,
      "Å¡ina": 3711,
      "ÄįnÃ¡": 3712,
      "Ġstranu": 3713,
      "Ġstup": 3714,
      "ĠSto": 3715,
      "ĠsnÃŃ": 3716,
      "stala": 3717,
      "ĠseverovÃ½chod": 3718,
      "JednÃ¡": 3719,
      "Ġtechno": 3720,
      "ĠtisÃŃc": 3721,
      "Äįt": 3722,
      "Ġseveru": 3723,
      "form": 3724,
      "venÃŃ": 3725,
      "Ġmlu": 3726,
      "zozem": 3727,
      "ĠnÃŃz": 3728,
      "ĠdÄĽt": 3729,
      "ĠÅĻadu": 3730,
      "ĠBritÃ¡": 3731,
      "ill": 3732,
      "tes": 3733,
      "ĠvzdÃ¡leno": 3734,
      "ĠBal": 3735,
      "cka": 3736,
      "ĠChar": 3737,
      "zujÃŃ": 3738,
      "Ġautor": 3739,
      "gne": 3740,
      "Ġpohybu": 3741,
      "Obec": 3742,
      "Ġste": 3743,
      "tika": 3744,
      "\".": 3745,
      "Ġprogram": 3746,
      "ĠsvÃ¡": 3747,
      "lis": 3748,
      "Ġvznikl": 3749,
      "Ġzbo": 3750,
      "ĠWal": 3751,
      "ĠvÃ½ji": 3752,
      "Ġopat": 3753,
      "ĠkaÅ¾dÃ½": 3754,
      "zdÃŃ": 3755,
      "Ġau": 3756,
      "ilm": 3757,
      "Ġohro": 3758,
      "Ġpodstat": 3759,
      "Ġjednodu": 3760,
      "ĠSla": 3761,
      "ĠprohlÃ¡": 3762,
      "bÃ½": 3763,
      "ery": 3764,
      "tifi": 3765,
      "tÃ©Å¾": 3766,
      "Ġmil": 3767,
      "ĠVelkÃ©": 3768,
      "ĠpÅĻedpo": 3769,
      "Ġzku": 3770,
      "Å¾enÃ½": 3771,
      "ĠdÃŃl": 3772,
      "pel": 3773,
      "ĠhÅĻbit": 3774,
      "Ġcm": 3775,
      "Ġpahor": 3776,
      "nÄĽme": 3777,
      "ĠÅ¡panÄĽl": 3778,
      "dena": 3779,
      "hÅĻe": 3780,
      "lum": 3781,
      "nÄĽna": 3782,
      "ĠprvnÃŃch": 3783,
      "jÃŃma": 3784,
      "Ġobsahu": 3785,
      "Ġnaci": 3786,
      "nec": 3787,
      "rtu": 3788,
      "Ġpru": 3789,
      "ret": 3790,
      "vaÅ¾": 3791,
      "ĠpobÅĻeÅ¾ÃŃ": 3792,
      "Ġstalo": 3793,
      "vila": 3794,
      "ĠBene": 3795,
      "ĠsouÄįasnÃ©": 3796,
      "Ġvozi": 3797,
      "ĠzmÃŃ": 3798,
      "ston": 3799,
      "Ġvedle": 3800,
      "ĠhrÃ¡l": 3801,
      "vnÃŃho": 3802,
      "Âłs": 3803,
      "Ġmuse": 3804,
      "kam": 3805,
      "Ġzdravo": 3806,
      "lovÃ¡": 3807,
      "ÄįastÄĽji": 3808,
      "bÅĻe": 3809,
      "ĠvÃ½z": 3810,
      "ĠOlomou": 3811,
      "Å¡tiny": 3812,
      "Ġzlo": 3813,
      "bar": 3814,
      "Ġmaji": 3815,
      "ĠBrnÄĽ": 3816,
      "Ġplane": 3817,
      "Ġspol": 3818,
      "ĠpouÅ¾itÃŃ": 3819,
      "lus": 3820,
      "Ġhere": 3821,
      "Ġvydal": 3822,
      "Ġcelou": 3823,
      "ĠukÃ¡": 3824,
      "lostÃŃ": 3825,
      "ĠRich": 3826,
      "ĠIzra": 3827,
      "ĠNÃ¡rodnÃŃho": 3828,
      "stÃ¡vÃ¡": 3829,
      "stant": 3830,
      "ĠzemÃŃch": 3831,
      "lÃ³ra": 3832,
      "ĠudÄĽ": 3833,
      "ĠvÃ½boru": 3834,
      "Å¡tÄĽnÃŃ": 3835,
      "Ġstran": 3836,
      "Ġjednu": 3837,
      "ĠchtÄĽ": 3838,
      "los": 3839,
      "dci": 3840,
      "pole": 3841,
      "Ã©n": 3842,
      "ĠmÄĽstem": 3843,
      "ĠprvnÃŃho": 3844,
      "ĠspoluprÃ¡": 3845,
      "ĠsbÃŃr": 3846,
      "Ġzastav": 3847,
      "ÅĻice": 3848,
      "ĠjenÅ¾": 3849,
      "Ġotec": 3850,
      "kej": 3851,
      "rin": 3852,
      "jat": 3853,
      "Ġtypi": 3854,
      "eologi": 3855,
      "alu": 3856,
      "ĠvÃ½vo": 3857,
      "ĠSpojenÃ½ch": 3858,
      "hat": 3859,
      "lovÃ©": 3860,
      "Äįkou": 3861,
      "oby": 3862,
      "Ġinformace": 3863,
      "Ã©ra": 3864,
      "Ġmodel": 3865,
      "ĠdruhÃ½": 3866,
      "ĠjednotlivÃ½ch": 3867,
      "Ġpomoc": 3868,
      "Ġfirmy": 3869,
      "ĠdobÅĻe": 3870,
      "Ġpole": 3871,
      "Ġobsad": 3872,
      "Ã©mu": 3873,
      "nÄĽnÃ¡": 3874,
      "Ġdlouh": 3875,
      "Toto": 3876,
      "peri": 3877,
      "telnÃ©": 3878,
      "ys": 3879,
      "aÅ¾": 3880,
      "ĠBÄĽ": 3881,
      "Ġspoluprac": 3882,
      "ero": 3883,
      "kova": 3884,
      "ĠzaloÅ¾il": 3885,
      "Ġapli": 3886,
      "zÅ¯": 3887,
      "jezd": 3888,
      "Ġknihy": 3889,
      "ĠdomÅ¯": 3890,
      "Ġpravo": 3891,
      "tok": 3892,
      "ĠlodÃŃ": 3893,
      "Ġsnad": 3894,
      "Ġzdroj": 3895,
      "ĠkulturnÃŃ": 3896,
      "ĠmÄĽli": 3897,
      "ĠvedenÃŃ": 3898,
      "stÅĻÃŃ": 3899,
      "ÃºspÄĽ": 3900,
      "PrÅ¯": 3901,
      "ĠptÃ¡": 3902,
      "Ġlokali": 3903,
      "nÄĽk": 3904,
      "ĠzÃºÄįast": 3905,
      "Ġzla": 3906,
      "razil": 3907,
      "ĠStÅĻedo": 3908,
      "ile": 3909,
      "ĠhrabÄĽ": 3910,
      "ĠCho": 3911,
      "Âło": 3912,
      "'s": 3913,
      "ĠdneÅ¡nÃŃ": 3914,
      "ĠspojenÃŃ": 3915,
      "proti": 3916,
      "ĠkÅĻÃŃÅ¾": 3917,
      "ĠmistrovstvÃŃ": 3918,
      "ĠEd": 3919,
      "Ġcenu": 3920,
      "ĠVyso": 3921,
      "Ġsoukro": 3922,
      "ĠVa": 3923,
      "Ġzani": 3924,
      "ks": 3925,
      "Ġvhod": 3926,
      "Ġare": 3927,
      "bora": 3928,
      "Ġnimi": 3929,
      "Ġslova": 3930,
      "Ġsbor": 3931,
      "Ġmm": 3932,
      "Ġkorun": 3933,
      "ĠBla": 3934,
      "luje": 3935,
      "ĠjÃŃz": 3936,
      "mky": 3937,
      "Ġnale": 3938,
      "ĠPetr": 3939,
      "brÃ¡": 3940,
      "Âłje": 3941,
      "ilnÃŃ": 3942,
      "Ġrady": 3943,
      "Ġvrchol": 3944,
      "Ġlist": 3945,
      "nicÃŃ": 3946,
      "lec": 3947,
      "vili": 3948,
      "Ġvystup": 3949,
      "onÃ¡": 3950,
      "ĠvÃ¡leÄį": 3951,
      "Ġpramen": 3952,
      "hlo": 3953,
      "ĠHav": 3954,
      "ÃŃch": 3955,
      "ĠpozdÄĽjÅ¡ÃŃ": 3956,
      "Ġstr": 3957,
      "Ġusku": 3958,
      "ĠuvÃ¡dÃŃ": 3959,
      "Ġmech": 3960,
      "Ġcharakteri": 3961,
      "mer": 3962,
      "Å¾ky": 3963,
      "ia": 3964,
      "liko": 3965,
      "nskÃ©ho": 3966,
      "Ġsoubor": 3967,
      "Ġjde": 3968,
      "Ġhranice": 3969,
      "Jejich": 3970,
      "ĠsnÃŃm": 3971,
      "ÅĪujÃŃ": 3972,
      "Ġradi": 3973,
      "Ġnapsal": 3974,
      "ĠseverozÃ¡pad": 3975,
      "cku": 3976,
      "ĠreÅ¾is": 3977,
      "Ġstand": 3978,
      "ĠBel": 3979,
      "ĠEx": 3980,
      "Ġprostoru": 3981,
      "ĠRoz": 3982,
      "lal": 3983,
      "mos": 3984,
      "lÃŃÄį": 3985,
      "NA": 3986,
      "ĠodliÅ¡": 3987,
      "Äĩ": 3988,
      "Å¾ek": 3989,
      "An": 3990,
      "lovÃ½ch": 3991,
      "ĠztrÃ¡": 3992,
      "ĠvÃ½bÄĽ": 3993,
      "ĠvlÃ¡da": 3994,
      "ĠLondÃ½": 3995,
      "zat": 3996,
      "lÃŃÅ¾": 3997,
      "ĠOstra": 3998,
      "Ġadres": 3999,
      "ĠMist": 4000,
      "Ġjihu": 4001,
      "Ġinte": 4002,
      "Ã¡lÅ¯": 4003,
      "Ġporu": 4004,
      "ĠÄįÃ¡ste": 4005,
      "ĠhÅĻe": 4006,
      "rÃ¡ch": 4007,
      "Ġvyh": 4008,
      "ĠMartin": 4009,
      "ĠCha": 4010,
      "ĠosÃŃd": 4011,
      "Ġju": 4012,
      "Ġpotvr": 4013,
      "Ġvyrob": 4014,
      "Ġdoprava": 4015,
      "rea": 4016,
      "ĠÄįinnosti": 4017,
      "Å¾dÄĽ": 4018,
      "ĠoznÃ¡": 4019,
      "xim": 4020,
      "Ġori": 4021,
      "ĠpÅĻesto": 4022,
      "ĠpÅĻedcho": 4023,
      "ĠBÃŃ": 4024,
      "ĠÅ¾lu": 4025,
      "bsolv": 4026,
      "-B": 4027,
      "prostÅĻed": 4028,
      "Ġvyp": 4029,
      "tickÃ½ch": 4030,
      "ĠÄįlovÄĽka": 4031,
      "zacÃŃ": 4032,
      "Ġtroj": 4033,
      "ĠtÅĻeba": 4034,
      "ĠvodnÃŃ": 4035,
      "ĠumÄĽl": 4036,
      "ĠÄįlenÅ¯": 4037,
      "ĠkaÅ¾": 4038,
      "Ġkone": 4039,
      "ÂłstoletÃŃ": 4040,
      "ĠFin": 4041,
      "ismus": 4042,
      "Ġform": 4043,
      "Å¡ich": 4044,
      "ĠdochÃ¡zÃŃ": 4045,
      "ĠcelÃ½": 4046,
      "ĠliterÃ¡": 4047,
      "Ġnaopak": 4048,
      "ĠFrancii": 4049,
      "Ġstavby": 4050,
      "-G": 4051,
      "ĠjejichÅ¾": 4052,
      "ĠBrit": 4053,
      "ĠvÃ½raznÄĽ": 4054,
      "ĠFa": 4055,
      "teÅĻÃŃ": 4056,
      "Ġzase": 4057,
      "ĠlodÄĽ": 4058,
      "Ġtrati": 4059,
      "Ġ+": 4060,
      "Ġpahorkat": 4061,
      "desÃ¡tÃ½ch": 4062,
      "Ġznamen": 4063,
      "Ġsam": 4064,
      "Ġposkyt": 4065,
      "atu": 4066,
      "ĠPoh": 4067,
      "ĠpÅĻirozen": 4068,
      "Ġstruktu": 4069,
      "Ġneza": 4070,
      "dice": 4071,
      "vobod": 4072,
      "Ð¸": 4073,
      "jev": 4074,
      "ĠWin": 4075,
      "tiÅ¾": 4076,
      "rova": 4077,
      "Ġneo": 4078,
      "han": 4079,
      "Ġzdro": 4080,
      "ĠÅĻÃŃzenÃŃ": 4081,
      "ĠostatnÃŃ": 4082,
      "Ġofici": 4083,
      "-M": 4084,
      "Ġpovo": 4085,
      "Ġdivadel": 4086,
      "ĠnynÃŃ": 4087,
      "Ġpad": 4088,
      "Ġfotografi": 4089,
      "zoval": 4090,
      "Ġcentra": 4091,
      "Ġnato": 4092,
      "ens": 4093,
      "fon": 4094,
      "ĠmoÅ¾nost": 4095,
      "mku": 4096,
      "lenovÃ©": 4097,
      "hly": 4098,
      "ĠMicha": 4099,
      "Ġuniverzity": 4100,
      "Ġnejprve": 4101,
      "hledu": 4102,
      "tev": 4103,
      "stan": 4104,
      "La": 4105,
      "Ġztra": 4106,
      "Ġhistorii": 4107,
      "top": 4108,
      "ĠnovÃ©ho": 4109,
      "Å¡ena": 4110,
      "moÅĻskÃ©": 4111,
      "ĠzpÅ¯sobem": 4112,
      "ĠamerickÃ©": 4113,
      "Ġder": 4114,
      "Å¡il": 4115,
      "Å¯Å¾": 4116,
      "ĠKarla": 4117,
      "Ġhtt": 4118,
      "Ġsocha": 4119,
      "tiÅ¡tÄĽ": 4120,
      "Äįel": 4121,
      "sel": 4122,
      "Ġskupin": 4123,
      "rovÃ½": 4124,
      "ĠVer": 4125,
      "Ġjapon": 4126,
      "dÃ¡t": 4127,
      "Ġzastup": 4128,
      "Ġpen": 4129,
      "ĠamerickÃ½": 4130,
      "dli": 4131,
      "ĠzaloÅ¾ena": 4132,
      "ela": 4133,
      "ĠzahraniÄįnÃŃ": 4134,
      "fy": 4135,
      "drÅ¾el": 4136,
      "Ġhe": 4137,
      "Ġhlad": 4138,
      "ĠFlo": 4139,
      "ĠtrÅ¯": 4140,
      "Ġple": 4141,
      "vale": 4142,
      "ĠKrÃ¡l": 4143,
      "Ġlodi": 4144,
      "Ġvyz": 4145,
      "ĠstÃ¡ty": 4146,
      "ĠcÃŃrkve": 4147,
      "ĠbÅĻehu": 4148,
      "tional": 4149,
      "Ġkapit": 4150,
      "Ġsami": 4151,
      "ines": 4152,
      "Ġobsah": 4153,
      "ĠAng": 4154,
      "cyk": 4155,
      "konÃ¡": 4156,
      "Ġsoud": 4157,
      "Å¾Ã¡": 4158,
      "Âłpro": 4159,
      "ĠDr": 4160,
      "Ġnebyla": 4161,
      "Ġdlouho": 4162,
      "byt": 4163,
      "ora": 4164,
      "nÃŃky": 4165,
      "Ġrodi": 4166,
      "ĠPri": 4167,
      "Ġfron": 4168,
      "ĠodehrÃ¡": 4169,
      "ĠmilionÅ¯": 4170,
      "Ġag": 4171,
      "Ġprode": 4172,
      "Ġser": 4173,
      "ĠmalÃ©": 4174,
      "Pou": 4175,
      "ĠvÅ¯bec": 4176,
      "Ġprostor": 4177,
      "Ġpoloviny": 4178,
      "Ã©hoÅ¾": 4179,
      "mav": 4180,
      "ĠnÄĽjak": 4181,
      "ĠÄĮech": 4182,
      "Ġkus": 4183,
      "Å¡it": 4184,
      "diska": 4185,
      "ĠKy": 4186,
      "Ðµ": 4187,
      "dÃ¡n": 4188,
      "Ġgym": 4189,
      "Fran": 4190,
      "ĠFot": 4191,
      "ĠodpovÃŃ": 4192,
      "cov": 4193,
      "ĠÄĮeskÃ¡": 4194,
      "Ġtru": 4195,
      "NÄĽ": 4196,
      "Ġfung": 4197,
      "ĠtotiÅ¾": 4198,
      "Ġpovin": 4199,
      "ĠMez": 4200,
      "ĠFlÃ³ra": 4201,
      "SouvisejÃŃcÃŃ": 4202,
      "Ġsdru": 4203,
      "ĠÄĮeskoslovenska": 4204,
      "Ġzmi": 4205,
      "ĠnovÃ½ch": 4206,
      "Ġnech": 4207,
      "omb": 4208,
      "rnÃŃch": 4209,
      "nÃŃn": 4210,
      "jez": 4211,
      "Ġblo": 4212,
      "Ġrekonstru": 4213,
      "ader": 4214,
      "ratu": 4215,
      "kovÃ©ho": 4216,
      "padÃ¡": 4217,
      "Ġhudeb": 4218,
      "Ġhokej": 4219,
      "âĢľ)": 4220,
      "ĠPaÅĻÃŃÅ¾i": 4221,
      "ĠsvÃ½mi": 4222,
      "lenÄĽ": 4223,
      "lila": 4224,
      "ovic": 4225,
      "ĠKri": 4226,
      "Ġinstitu": 4227,
      "rych": 4228,
      "ĠMil": 4229,
      "koval": 4230,
      "ĠnovÃ¡": 4231,
      "stit": 4232,
      "Ġproces": 4233,
      "Ġrezerva": 4234,
      "ju": 4235,
      "rny": 4236,
      "Ġor": 4237,
      "rchi": 4238,
      "ĠjÃ¡d": 4239,
      "Ġnos": 4240,
      "Ġdle": 4241,
      "ĠfinÃ¡le": 4242,
      "chÃ¡zel": 4243,
      "Ġjas": 4244,
      "Ġbudovy": 4245,
      "paci": 4246,
      "-S": 4247,
      "torem": 4248,
      "Ġtj": 4249,
      "Ġsing": 4250,
      "ĠvÃ½t": 4251,
      "kÃ¡lnÃŃ": 4252,
      "nÃ¡zi": 4253,
      "ĠÄįerven": 4254,
      "nivers": 4255,
      "ÂłB": 4256,
      "Ġovliv": 4257,
      "Ġnapo": 4258,
      "stil": 4259,
      "Ġzakla": 4260,
      "ovanÃ©ho": 4261,
      "uper": 4262,
      "Ġnev": 4263,
      "ble": 4264,
      "ws": 4265,
      "NÃ¡zev": 4266,
      "ĠÄįasu": 4267,
      "ĠjihovÃ½chod": 4268,
      "Ġpilo": 4269,
      "ĠSevernÃŃ": 4270,
      "ĠMorav": 4271,
      "ĠkonkrÃ©": 4272,
      "Ġnedale": 4273,
      "ĠNÄĽmecku": 4274,
      "gan": 4275,
      "duje": 4276,
      "Ġoz": 4277,
      "Å¾enÃ©": 4278,
      "skokatoli": 4279,
      "niÄįÃŃ": 4280,
      "ĠÅ¡tÃŃ": 4281,
      "Ġhradu": 4282,
      "rati": 4283,
      "ĠvzÃ¡": 4284,
      "aj": 4285,
      "Ġokresu": 4286,
      "znÄĽ": 4287,
      "lid": 4288,
      "ktor": 4289,
      "knÃŃ": 4290,
      "raci": 4291,
      "Ġkraje": 4292,
      "Ġdodnes": 4293,
      "ĠposÃ¡d": 4294,
      "zovat": 4295,
      "Ġarab": 4296,
      "fikace": 4297,
      "nickÃ¡": 4298,
      "Ġsouse": 4299,
      "ĠmyÅ¡len": 4300,
      "ĠrozdÄĽlen": 4301,
      "znamenÃ¡": 4302,
      "Å¡ech": 4303,
      "tnÄĽ": 4304,
      "ĠpamÃ¡tky": 4305,
      "Ġhlu": 4306,
      "pravidla": 4307,
      "ĠUniverzit": 4308,
      "laci": 4309,
      "ĠpÅĻÃŃro": 4310,
      "cel": 4311,
      "znu": 4312,
      "lova": 4313,
      "Âłv": 4314,
      "ĠJed": 4315,
      "ĠJak": 4316,
      "ĠZÃ¡pad": 4317,
      "Ġmusel": 4318,
      "Byla": 4319,
      "Ġzlat": 4320,
      "Ġkur": 4321,
      "ĠÅłvÃ©d": 4322,
      "chÃ¡ch": 4323,
      "nict": 4324,
      "Ġkonf": 4325,
      "hnout": 4326,
      "Ġtoku": 4327,
      "ĠVÄĽ": 4328,
      "ĠzÃ¡sob": 4329,
      "ĠÅ¡esti": 4330,
      "ay": 4331,
      "Ġvedl": 4332,
      "znÃ¡mÄĽjÅ¡ÃŃ": 4333,
      "Ġtram": 4334,
      "ĠVl": 4335,
      "stavy": 4336,
      "ĠFrancouz": 4337,
      "Ġvyvo": 4338,
      "ĠpapeÅ¾": 4339,
      "ĠstrÃ¡n": 4340,
      "Ġmatemati": 4341,
      "PÅĻesto": 4342,
      "Di": 4343,
      "ĠObce": 4344,
      "stie": 4345,
      "ĠdÄĽtÃŃ": 4346,
      "ĠKe": 4347,
      "Ġocen": 4348,
      "ĠÅ¾ije": 4349,
      "ĠsprÃ¡v": 4350,
      "line": 4351,
      "rovÃ½ch": 4352,
      "pravu": 4353,
      "cÅ¯m": 4354,
      "vie": 4355,
      "ĠpÅĻÃŃtom": 4356,
      "ĠobchodnÃŃ": 4357,
      "zie": 4358,
      "ser": 4359,
      "stival": 4360,
      "Ġplu": 4361,
      "Ġnechal": 4362,
      "Å¡tina": 4363,
      "illa": 4364,
      "mili": 4365,
      "ĠnÄĽmÅ¾": 4366,
      "ÅĻily": 4367,
      "Ġvyd": 4368,
      "ovanou": 4369,
      "pÅĻe": 4370,
      "Ġâ": 4371,
      "Ġdefini": 4372,
      "ĠEgy": 4373,
      "Ġstan": 4374,
      "Ġsig": 4375,
      "tis": 4376,
      "NÃ¡sled": 4377,
      "zofi": 4378,
      "ĠpoÅ¡ko": 4379,
      "vice": 4380,
      "bel": 4381,
      "ÄįenÃŃm": 4382,
      "Ġkomb": 4383,
      "hodnosti": 4384,
      "mann": 4385,
      "Ġfotograf": 4386,
      "enta": 4387,
      "ĠnÃ¡vÅ¡tÄĽ": 4388,
      "Äįiny": 4389,
      "Ġteorie": 4390,
      "fesi": 4391,
      "Ġvelkou": 4392,
      "chem": 4393,
      "elez": 4394,
      "ĠSovÄĽt": 4395,
      "ĠFili": 4396,
      "zod": 4397,
      "Ġus": 4398,
      "Ġodstra": 4399,
      "ĠFo": 4400,
      "ĠSvÄĽt": 4401,
      "Ġrychlost": 4402,
      "Ġly": 4403,
      "Ġide": 4404,
      "cm": 4405,
      "Ġmoci": 4406,
      "Ġport": 4407,
      "Ġastro": 4408,
      "ĠIndi": 4409,
      "Ġapod": 4410,
      "Ġhodin": 4411,
      "ÅĤ": 4412,
      "Ġlov": 4413,
      "ket": 4414,
      "ĠznÃ¡mÃ½": 4415,
      "dalo": 4416,
      "ĠbitvÄĽ": 4417,
      "Ġgeo": 4418,
      "ĠdneÅ¡": 4419,
      "ĠmalÃ¡": 4420,
      "rn": 4421,
      "one": 4422,
      "ĠEl": 4423,
      "ĠTra": 4424,
      "zka": 4425,
      "MÃ¡": 4426,
      ".).": 4427,
      "Sta": 4428,
      "ĠDob": 4429,
      "ĠvojenskÃ©": 4430,
      "ĠPlzeÅĪ": 4431,
      "ĠTy": 4432,
      "ĠpracovnÃŃ": 4433,
      "ĠdÅ¯m": 4434,
      "ingu": 4435,
      "TakÃ©": 4436,
      "ĠrozhodnutÃŃ": 4437,
      "Ġrodin": 4438,
      "ĠpodobÄĽ": 4439,
      "ĠvÃ¡lka": 4440,
      "ÅĻela": 4441,
      "ĠzajiÅ¡Å¥": 4442,
      "Ġarci": 4443,
      "jÃŃcÃŃm": 4444,
      "Ġbratr": 4445,
      "DÃŃky": 4446,
      "ÂłK": 4447,
      "ĠpochÃ¡ze": 4448,
      "Zde": 4449,
      "dav": 4450,
      "Ġsociali": 4451,
      "Zem": 4452,
      "ĠsobÄĽ": 4453,
      "Ġulice": 4454,
      "finÃ¡le": 4455,
      "Ġoba": 4456,
      "Ġhou": 4457,
      "ĠMosk": 4458,
      "Ãģ": 4459,
      "TA": 4460,
      "eld": 4461,
      "mun": 4462,
      "ĠmodernÃŃ": 4463,
      "Ġvoleb": 4464,
      "Ġhru": 4465,
      "Ġab": 4466,
      "ĠzvÃŃÅĻ": 4467,
      "ĠpÅĻÃŃleÅ¾ito": 4468,
      "ĠprÃ¡vnÃŃ": 4469,
      "nami": 4470,
      "pÄĽtÃŃ": 4471,
      "ĠuniverzitÄĽ": 4472,
      "ĠsÃŃÅ¥": 4473,
      "minist": 4474,
      "Ġles": 4475,
      "vÄĽzd": 4476,
      "avor": 4477,
      "ĠpÅĻÃŃpadnÄĽ": 4478,
      "ĠpÅĻÃŃsluÅ¡": 4479,
      "ĠZemÄĽ": 4480,
      "Å¾ena": 4481,
      "Ġdeseti": 4482,
      "Ġporo": 4483,
      "tori": 4484,
      "Ġdruhou": 4485,
      "Ġhranici": 4486,
      "HlavnÃŃ": 4487,
      "ĠÅ¡kole": 4488,
      "ĠOpen": 4489,
      "bert": 4490,
      "Ġautomobil": 4491,
      "kÃ¡m": 4492,
      "ĠvÅ¯Äįi": 4493,
      "Ġskladatel": 4494,
      "ĠzÃ¡sad": 4495,
      "Ġrela": 4496,
      "ĠvysokÃ©": 4497,
      "ĠzÅĻejmÄĽ": 4498,
      "Ġvztah": 4499,
      "ĠhlavnÃŃho": 4500,
      "ĠÃºrov": 4501,
      "Ġopak": 4502,
      "ĠstÃ¡l": 4503,
      "zemnÃŃ": 4504,
      "ĠuznÃ¡": 4505,
      "ĠÃºse": 4506,
      "ĠBohu": 4507,
      "tivy": 4508,
      "nostnÃŃ": 4509,
      "ĠMc": 4510,
      "Ġabsolv": 4511,
      "Ġcesty": 4512,
      "gos": 4513,
      "ÄįÃŃn": 4514,
      "ĠutkÃ¡nÃŃ": 4515,
      "ĠjejÃŃÅ¾": 4516,
      "Ġprinci": 4517,
      "ĠJaroslav": 4518,
      "ĠzÃ¡kona": 4519,
      "Ġpopulace": 4520,
      "hody": 4521,
      "alÃ½": 4522,
      "nili": 4523,
      "tickÃ©ho": 4524,
      "Ġleh": 4525,
      "ĠromÃ¡n": 4526,
      "likoÅ¾": 4527,
      "ĠpolitickÃ©": 4528,
      "Ġokraji": 4529,
      "ĠpÅĻÃŃj": 4530,
      "Ġlidu": 4531,
      "ĠsezÃ³nÄĽ": 4532,
      "ake": 4533,
      "Ġnarod": 4534,
      "ÅĻeny": 4535,
      "jde": 4536,
      "Ã¡nu": 4537,
      "ĠuvÃ¡dÄĽ": 4538,
      "ĠSlez": 4539,
      "dne": 4540,
      "ÅĻstvÃŃ": 4541,
      "Ġpedago": 4542,
      "fu": 4543,
      "Ġtun": 4544,
      "Ġtitu": 4545,
      "ĠsouÄįÃ¡st": 4546,
      "rami": 4547,
      "Ġatd": 4548,
      "ĠprÅ¯mysl": 4549,
      "ĠnicmÃ©nÄĽ": 4550,
      "ceti": 4551,
      "Ġrozhodl": 4552,
      "Ġprofesor": 4553,
      "Å¡ichni": 4554,
      "ĠsmÃŃ": 4555,
      "ĠpÅĻiprav": 4556,
      "str": 4557,
      "kop": 4558,
      "ĠosobnÃŃ": 4559,
      "Ġfotografie": 4560,
      "ong": 4561,
      "Ġprogramu": 4562,
      "ajÃŃ": 4563,
      "Ġprod": 4564,
      "sech": 4565,
      "mÄĽtihodnosti": 4566,
      "Ġprojektu": 4567,
      "ĠÅ¾Ã¡dnÃ©": 4568,
      "ĠbÄĽÅ¾": 4569,
      "Ġvide": 4570,
      "Ã¡na": 4571,
      "Ġnaro": 4572,
      "istri": 4573,
      "Ġregionu": 4574,
      "Ġem": 4575,
      "Ġkultury": 4576,
      "Ġzve": 4577,
      "ĠsÃ©rie": 4578,
      "Ġnastoupil": 4579,
      "Ġpolitik": 4580,
      "ĠpÅĻipomÃŃ": 4581,
      "ĠDra": 4582,
      "ĠpouÅ¾ÃŃvajÃŃ": 4583,
      "ĠgÃ³": 4584,
      "tÃ©kÃ¡": 4585,
      "Ġchla": 4586,
      "ĠpÅ¯l": 4587,
      "stickÃ¡": 4588,
      "nos": 4589,
      "ĠHam": 4590,
      "ĠzakÃ¡": 4591,
      "ĠJosefa": 4592,
      "klÃ©": 4593,
      "que": 4594,
      "ae": 4595,
      "ĠmuÅ¾Å¯": 4596,
      "Ġpohyb": 4597,
      "ĠSport": 4598,
      "Ġsem": 4599,
      "Ġzas": 4600,
      "entÅ¯": 4601,
      "ĠpoblÃŃÅ¾": 4602,
      "Ġnau": 4603,
      "ĠbÃ½valÃ½": 4604,
      "lovÄĽk": 4605,
      "ĠzaÅĻa": 4606,
      "Ġparlamentu": 4607,
      "ĠHol": 4608,
      "Ġvarian": 4609,
      "Ġkaple": 4610,
      "deb": 4611,
      "vost": 4612,
      "Ġminister": 4613,
      "ĠnÃ¡dra": 4614,
      "ĠdodÃ¡": 4615,
      "ĠjmenovÃ¡n": 4616,
      "Ġhudby": 4617,
      "Ġvrchov": 4618,
      "ĠmÄĽstskÃ©": 4619,
      "Ġmikro": 4620,
      "ĠHen": 4621,
      "ĠvÃ½mÄĽ": 4622,
      "nictvÃŃm": 4623,
      "ĠFe": 4624,
      "jÃŃch": 4625,
      "ĠsoutÄĽÅ¾e": 4626,
      "stud": 4627,
      "ĠnemÃ¡": 4628,
      "livu": 4629,
      "ticky": 4630,
      "zenÃŃm": 4631,
      "ĠVÃŃd": 4632,
      "Ġvsi": 4633,
      "adu": 4634,
      "vange": 4635,
      "Ġstanov": 4636,
      "Vo": 4637,
      "Ġstaveb": 4638,
      "Ġkal": 4639,
      "ujÃŃcÃŃch": 4640,
      "NÄĽkterÃ©": 4641,
      "Ġhrd": 4642,
      "ÅĻednÃŃ": 4643,
      "Ġprojekt": 4644,
      "Ġzvu": 4645,
      "regi": 4646,
      "Äįnou": 4647,
      "ĠtrenÃ©": 4648,
      "ĠkrÃ¡tce": 4649,
      "moc": 4650,
      "ĠPavel": 4651,
      "nese": 4652,
      "lÃŃk": 4653,
      "Ġlednu": 4654,
      "ken": 4655,
      "ĠPos": 4656,
      "kot": 4657,
      "ĠcÃŃlem": 4658,
      "Ġchod": 4659,
      "ann": 4660,
      "zim": 4661,
      "stickÃ½": 4662,
      "ĠÃºt": 4663,
      "ĠvÄĽd": 4664,
      "vacÃŃ": 4665,
      "Äįeno": 4666,
      "poli": 4667,
      "Ġkoru": 4668,
      "ĠCor": 4669,
      "Ġenergie": 4670,
      "ĠbuÄı": 4671,
      "ĠkÃ¡": 4672,
      "ĠMy": 4673,
      "OS": 4674,
      "ĠMaÄıar": 4675,
      "telÅ¯": 4676,
      "Ġtou": 4677,
      "ĠLudvÃŃ": 4678,
      "ĠGre": 4679,
      "Ġakce": 4680,
      "ĠjejÃŃho": 4681,
      "ĠhlÃ¡": 4682,
      "nÃŃci": 4683,
      "ĠdospÄĽ": 4684,
      "ÃºspÄĽÅ¡": 4685,
      "Ġnemoh": 4686,
      "bet": 4687,
      "lip": 4688,
      "ĠDÄĽ": 4689,
      "ĠcÃŃsaÅĻe": 4690,
      "Ġrozvoj": 4691,
      "ĠzaloÅ¾enÃ©": 4692,
      "ĠMod": 4693,
      "dit": 4694,
      "Ġprosinci": 4695,
      "ĠspoleÄįnostÃŃ": 4696,
      "Ġhistorie": 4697,
      "Popis": 4698,
      "Ġturisti": 4699,
      "pit": 4700,
      "Ġang": 4701,
      "nickÃ½ch": 4702,
      "ĠÃºz": 4703,
      "ĠÅ¡kolu": 4704,
      "ĠpÅĻÃŃstav": 4705,
      "Ġskal": 4706,
      "kry": 4707,
      "stickÃ©ho": 4708,
      "hing": 4709,
      "Å¡enÃ©": 4710,
      "rovÄĽ": 4711,
      "torÅ¯": 4712,
      "lik": 4713,
      "ĠtÄĽla": 4714,
      "ĠVol": 4715,
      "Ġlou": 4716,
      "Ġtrans": 4717,
      "ĠDavid": 4718,
      "wn": 4719,
      "ĠhlasÅ¯": 4720,
      "Ġdrob": 4721,
      "ĠÅ¾eny": 4722,
      "topis": 4723,
      "Ġodsou": 4724,
      "anta": 4725,
      "Ġokam": 4726,
      "ĠsÃŃly": 4727,
      "pÅĻed": 4728,
      "ĠpromÄĽ": 4729,
      "SSR": 4730,
      "Ġren": 4731,
      "ĠOt": 4732,
      "Ġulici": 4733,
      "isi": 4734,
      "zala": 4735,
      "ĠvÄĽtÅ¡inu": 4736,
      "ĠLiber": 4737,
      "ĠÃºpl": 4738,
      "Ġweb": 4739,
      "ĠpÃ¡n": 4740,
      "Ġefe": 4741,
      "ĠIzrael": 4742,
      "nalo": 4743,
      "Ġdost": 4744,
      "ĠvyjÃ¡d": 4745,
      "Ġdosud": 4746,
      "ĠzÃ¡j": 4747,
      "ĠWor": 4748,
      "Ġpozoro": 4749,
      "ĠnÃ¡boÅ¾enstvÃŃ": 4750,
      "tonu": 4751,
      "ĠdÃŃtÄĽ": 4752,
      "ĠoficiÃ¡lnÃŃ": 4753,
      "ĠnejstarÅ¡ÃŃ": 4754,
      "ĠAs": 4755,
      "ĠdalÅ¡ÃŃmi": 4756,
      "Å¡li": 4757,
      "dÃ¡le": 4758,
      "ĠJiÅ¾nÃŃ": 4759,
      "ĠodeÅ¡el": 4760,
      "covÃ©": 4761,
      "vÃ½ch": 4762,
      "ĠPraÅ¾": 4763,
      "tÃ¡ÅĻ": 4764,
      "vlÃ¡": 4765,
      "Ġnasa": 4766,
      "ĠBur": 4767,
      "ĠnejÄįastÄĽji": 4768,
      "Ġzda": 4769,
      "ĠklÃ¡Å¡ter": 4770,
      "Ġnarodil": 4771,
      "ĠUkraj": 4772,
      "ftwa": 4773,
      "dec": 4774,
      "Ġzpravidla": 4775,
      "lÃ©ho": 4776,
      "Ġvyskytuje": 4777,
      "MÃŃ": 4778,
      "Ġpost": 4779,
      "ĠpÅĻÃŃbu": 4780,
      "ruhu": 4781,
      "Ġkol": 4782,
      "ĠvzÃ¡jem": 4783,
      "liam": 4784,
      "ĠmÃŃstech": 4785,
      "nÃ¡ct": 4786,
      "ĠdÅĻevÄĽ": 4787,
      "ĠprÃ¡v": 4788,
      "ĠdÅ¯sledku": 4789,
      "uri": 4790,
      "anÃ©ho": 4791,
      "ĠSer": 4792,
      "ont": 4793,
      "vku": 4794,
      "spÃŃ": 4795,
      "rovou": 4796,
      "Ġvlaj": 4797,
      "Ġrake": 4798,
      "Ġlatin": 4799,
      "ĠnÃ¡draÅ¾ÃŃ": 4800,
      "kacÃŃ": 4801,
      "pozici": 4802,
      "Å¾ad": 4803,
      "Ġzelen": 4804,
      "tud": 4805,
      "ĠÅłvÃ½car": 4806,
      "Ġknih": 4807,
      "Ge": 4808,
      "ĠtÃ©hoÅ¾": 4809,
      "ĠPanny": 4810,
      "povÄĽ": 4811,
      "ĠmÃ¡lo": 4812,
      "ĠkariÃ©ra": 4813,
      "Ġvelko": 4814,
      "Ġgo": 4815,
      "Ġnovou": 4816,
      "):": 4817,
      "ĠBran": 4818,
      "Ġdivadla": 4819,
      "mlu": 4820,
      "Ġhro": 4821,
      "ĠpodobnÄĽ": 4822,
      "ĠumoÅ¾ÅĪuje": 4823,
      "ĠgymnÃ¡zi": 4824,
      "Ġprvky": 4825,
      "nÄĽnÃ½ch": 4826,
      "ted": 4827,
      "ĠÄĮlenovÃ©": 4828,
      "ĠLab": 4829,
      "ĠtovÃ¡": 4830,
      "Ġak": 4831,
      "âĢł": 4832,
      "und": 4833,
      "ĠÄįÃ¡steÄįnÄĽ": 4834,
      "ĠIvan": 4835,
      "Ġsituace": 4836,
      "vosti": 4837,
      "Ġnebylo": 4838,
      "benÃŃ": 4839,
      "cad": 4840,
      "gn": 4841,
      "Ġam": 4842,
      "Ġpostaven": 4843,
      "Ġevid": 4844,
      "Hra": 4845,
      "SÄĮ": 4846,
      "aty": 4847,
      "Ġdal": 4848,
      "ĠhrÃ¡Äį": 4849,
      "Ġceny": 4850,
      "kazuje": 4851,
      "Ġbrzy": 4852,
      "Nap": 4853,
      "Jsou": 4854,
      "Ġinspi": 4855,
      "ÑĢ": 4856,
      "rÃ¡nÃŃ": 4857,
      "ĠvÄĽnoval": 4858,
      "matickÃ©": 4859,
      "Ã¡nÃŃ": 4860,
      ".:": 4861,
      "ĠamerickÃ½ch": 4862,
      "ĠpohÅĻ": 4863,
      "dÄĽt": 4864,
      "Ġsitua": 4865,
      "cit": 4866,
      "nebo": 4867,
      "balistÃ©": 4868,
      "ĠnejvÃ½znam": 4869,
      "Ġveden": 4870,
      "Ġpotok": 4871,
      "ĠpovstÃ¡nÃŃ": 4872,
      "tus": 4873,
      "HL": 4874,
      "sahu": 4875,
      "Ġiden": 4876,
      "Ð½": 4877,
      "Ġprofesi": 4878,
      "inosau": 4879,
      "nemoc": 4880,
      "jÃŃcÃŃho": 4881,
      "Ġopust": 4882,
      "lenÃŃm": 4883,
      "ĠnalÃ©": 4884,
      "odi": 4885,
      "Ġhory": 4886,
      "Ġgrafi": 4887,
      "Ġkoloni": 4888,
      "ĠteleviznÃŃ": 4889,
      "ÂłzÃ¡": 4890,
      "vÄĽjÅ¡ÃŃ": 4891,
      "Ġobjevil": 4892,
      "nÃŃkem": 4893,
      "Ġtrvale": 4894,
      "vÃ¡n": 4895,
      "ĠÅĻeÅ¡enÃŃ": 4896,
      "ĠlÃ©ta": 4897,
      "angli": 4898,
      "ĠpostavenÃŃ": 4899,
      "Ġzahrnuje": 4900,
      "hrÃ¡la": 4901,
      "ĠjednÃ¡nÃŃ": 4902,
      "sic": 4903,
      "mie": 4904,
      "ĠpÃ¡t": 4905,
      "lic": 4906,
      "ĠMer": 4907,
      "Ġtabul": 4908,
      "Ġdov": 4909,
      "VÃŃ": 4910,
      "cena": 4911,
      "Ã½val": 4912,
      "Ġbudova": 4913,
      "ĠvytvoÅĻil": 4914,
      "Ġmnohem": 4915,
      "Ġwe": 4916,
      "wi": 4917,
      "nickÃ½": 4918,
      "ĠCol": 4919,
      "vaj": 4920,
      "ĠpÅĻedchozÃŃ": 4921,
      "Ġdoch": 4922,
      "Âłcm": 4923,
      "sbur": 4924,
      "ĠzÃ¡mek": 4925,
      "ĠzÃ¡mku": 4926,
      "Ġlinky": 4927,
      "Ġmra": 4928,
      "lovou": 4929,
      "ĠarmÃ¡da": 4930,
      "Ġfiloso": 4931,
      "Ġaktiv": 4932,
      "letÃ©": 4933,
      "ĠHi": 4934,
      "ĠostatnÃŃch": 4935,
      "Ġprou": 4936,
      "ĠTomÃ¡": 4937,
      "ameri": 4938,
      "Ġsvazu": 4939,
      "ĠJiho": 4940,
      "Å¾eb": 4941,
      "ĠÅ¾eb": 4942,
      "Ġdefin": 4943,
      "ress": 4944,
      "ER": 4945,
      "tovÃ©": 4946,
      "ĠÄįet": 4947,
      "ĠHel": 4948,
      "nickÃ©ho": 4949,
      "ĠsvÃ©mu": 4950,
      "Ġstudia": 4951,
      "ĠkvÄĽtnu": 4952,
      "ĠdomÃ¡cÃŃ": 4953,
      "teÅĻ": 4954,
      "gii": 4955,
      "ĠzpÄĽvÃ¡": 4956,
      "Ã¨": 4957,
      "ĠzdejÅ¡ÃŃ": 4958,
      "dubi": 4959,
      "Ġkdo": 4960,
      "ĠKrÃ¡lovÃ©": 4961,
      "byvatel": 4962,
      "Ġparku": 4963,
      "ĠÅ¾il": 4964,
      "outen": 4965,
      "ĠGeor": 4966,
      "wal": 4967,
      "ĠvyhrÃ¡l": 4968,
      "ĠLit": 4969,
      "nech": 4970,
      "KO": 4971,
      "DS": 4972,
      "jena": 4973,
      "Ġ(âĢł": 4974,
      "vedl": 4975,
      "pravÄĽ": 4976,
      "kres": 4977,
      "Ġkoncert": 4978,
      "ĠvedenÃŃm": 4979,
      "eografie": 4980,
      "Ġzne": 4981,
      "Âłvan": 4982,
      "ĠAm": 4983,
      "ĠpÃŃsmen": 4984,
      "Nav": 4985,
      "ĠdruÅ¾": 4986,
      "ĠzaÄįaly": 4987,
      "Ġnemo": 4988,
      "ĠCla": 4989,
      "ĠstrÃ¡nkÃ¡ch": 4990,
      "dorf": 4991,
      "dam": 4992,
      "ĠrozdÄĽ": 4993,
      "ronz": 4994,
      "Ġmedaili": 4995,
      "loub": 4996,
      "-C": 4997,
      "ĠproblÃ©my": 4998,
      "Ġdopravy": 4999,
      "Ġkyse": 5000,
      ".com": 5001,
      "ĠTro": 5002,
      "ĠpodÃ©l": 5003,
      "ĠtÄĽle": 5004,
      "usÃŃ": 5005,
      "ĠPre": 5006,
      "ÂłHouten": 5007,
      "Â°C": 5008,
      "ward": 5009,
      "Ġbran": 5010,
      "ĠstejnÃ©": 5011,
      "Ġroze": 5012,
      "ĠdÅ¯vodu": 5013,
      "lÃŃnÄĽ": 5014,
      "sten": 5015,
      "ĠzÃŃskat": 5016,
      "Ġlokomo": 5017,
      "ĠdnÃŃ": 5018,
      "ĠtrÃ¡": 5019,
      "stoupenÃŃ": 5020,
      "ĠvelkÃ½ch": 5021,
      "ĠdrÃ¡hy": 5022,
      "ÅĪovÃ¡nÃŃ": 5023,
      "tiva": 5024,
      "Ġnebez": 5025,
      "ĠvÃ½zkum": 5026,
      "mona": 5027,
      "ele": 5028,
      "ĠoznaÄįuje": 5029,
      "kladem": 5030,
      "ĠRec": 5031,
      "ĠzaÄįÃŃnÃ¡": 5032,
      "ĠChe": 5033,
      "ĠoblÃŃ": 5034,
      "ĠrybnÃŃ": 5035,
      "âĢĻ": 5036,
      "ood": 5037,
      "ÄįenÃ©": 5038,
      "Ġokol": 5039,
      "Ġhoke": 5040,
      "vangeli": 5041,
      "kola": 5042,
      "Ġstejno": 5043,
      "sii": 5044,
      "vÄĽtÅ¡ÃŃm": 5045,
      "Ġvyvinu": 5046,
      "ĠÄĮeskÃ½": 5047,
      "mod": 5048,
      "pal": 5049,
      "ĠYork": 5050,
      "ĠFerdin": 5051,
      "ĠÄįist": 5052,
      "broj": 5053,
      "Ja": 5054,
      "ĠBÅĻe": 5055,
      "Ġvelice": 5056,
      "ĠvzdÄĽlÃ¡": 5057,
      "Ġepizod": 5058,
      "ÄįÃŃtÃ¡nÃŃ": 5059,
      "hÃ¡nÃŃ": 5060,
      "ĠSÃ¡": 5061,
      "menty": 5062,
      "ĠsezÃ³ny": 5063,
      "Pr": 5064,
      "ĠcelÃ©m": 5065,
      "ulhar": 5066,
      "ĠChrÃ¡": 5067,
      "ĠodpovÄĽ": 5068,
      "Ġminulosti": 5069,
      "ĠvzÃ¡c": 5070,
      "ĠhnÄĽ": 5071,
      "ĠEu": 5072,
      "ĠÄįinÃŃ": 5073,
      "ĠzÅ¯stal": 5074,
      "ost": 5075,
      "ĠoblastÃŃ": 5076,
      "ĠstÅĻedo": 5077,
      "ĠdalÅ¡ÃŃm": 5078,
      "Ġstroje": 5079,
      "ĠdruhÃ©m": 5080,
      "ĠDÄĽjiny": 5081,
      "Ġosmi": 5082,
      "nad": 5083,
      "ĠcelÃ©ho": 5084,
      "Å¾ovÃ¡nÃŃ": 5085,
      "ĠpahorkatinÄĽ": 5086,
      "ÂłÄįerv": 5087,
      "ĠNÄĽmecka": 5088,
      "lari": 5089,
      "Ġtrest": 5090,
      "obec": 5091,
      "VÃ½znam": 5092,
      "dÅĻÃŃve": 5093,
      "Ġautobus": 5094,
      "ĠmladÅ¡ÃŃ": 5095,
      "Ġprovincie": 5096,
      "lim": 5097,
      "pace": 5098,
      "ĠmlÃ¡de": 5099,
      "rodnÃŃm": 5100,
      "Ġbarev": 5101,
      "ĠdlouhÃ©": 5102,
      "eruzal": 5103,
      "Ġund": 5104,
      "ĠprobÃŃha": 5105,
      "ĠSlovensku": 5106,
      "ĠHornÃŃ": 5107,
      "Ġkontak": 5108,
      "Ġinf": 5109,
      "ĠbuÅĪ": 5110,
      "tan": 5111,
      "Äįce": 5112,
      "Ã¡nskÃ©": 5113,
      "cvi": 5114,
      "Ġpali": 5115,
      "ĠAuto": 5116,
      "nily": 5117,
      "ĠÅłtÄĽ": 5118,
      "ĠdopravnÃŃ": 5119,
      "Ġkoncem": 5120,
      "inace": 5121,
      "pie": 5122,
      "ES": 5123,
      "Ġsvoji": 5124,
      "SpoleÄį": 5125,
      "Ġseku": 5126,
      "ĠBudÄĽj": 5127,
      "goslÃ¡": 5128,
      "lÃ¡Å¡tnÃŃ": 5129,
      "kin": 5130,
      "domÃŃ": 5131,
      "Ġstadi": 5132,
      "Ã³ny": 5133,
      "ise": 5134,
      "ĠUnivers": 5135,
      "ĠpÄĽst": 5136,
      "Ġdola": 5137,
      "Ġuz": 5138,
      "Ġprezidenta": 5139,
      "pisu": 5140,
      "ĠhornÃŃ": 5141,
      "Ġmorav": 5142,
      "Ġdivi": 5143,
      "Ġnom": 5144,
      "Ġjezera": 5145,
      "Ġ)": 5146,
      "SouÄįas": 5147,
      "Ġmaxim": 5148,
      "ĠsnaÅ¾ÃŃ": 5149,
      "Ġstudoval": 5150,
      "Ġpoly": 5151,
      "Ġrezi": 5152,
      "ĠÅ¡tÄĽ": 5153,
      "Mno": 5154,
      "Ġdistri": 5155,
      "Ġnakladatel": 5156,
      "ĠpÅĻedstavuje": 5157,
      "ĠudÃ¡losti": 5158,
      "can": 5159,
      "Ġjednotek": 5160,
      "Ġpozici": 5161,
      "ĠHy": 5162,
      "mila": 5163,
      "ĠvlÃ¡d": 5164,
      "kr": 5165,
      "ĠMezinÃ¡rodnÃŃ": 5166,
      "zant": 5167,
      "ott": 5168,
      "ĠVÃ½chod": 5169,
      "ĠÄįeskÃ¡": 5170,
      "ĠvÃ½bor": 5171,
      "ĠstÅĻel": 5172,
      "stoupila": 5173,
      "Ġkola": 5174,
      "Ġformu": 5175,
      "Ġ(âĢŀ": 5176,
      "ĠpotÅĻeb": 5177,
      "Ġhlas": 5178,
      "ĠpÃŃsnÄĽ": 5179,
      "Ġdostup": 5180,
      "vobo": 5181,
      "ĠKr": 5182,
      "Ġneob": 5183,
      "ĠIr": 5184,
      "stika": 5185,
      "mus": 5186,
      "Ġtvaru": 5187,
      "ĠprochÃ¡zÃŃ": 5188,
      "ĠKi": 5189,
      "ĠÅ¡pat": 5190,
      "Dr": 5191,
      "ith": 5192,
      "Ġpark": 5193,
      "tickou": 5194,
      "ĠFre": 5195,
      "ĠprostÅĻednictvÃŃm": 5196,
      "ĠBrati": 5197,
      "stÃ½": 5198,
      "Ġstou": 5199,
      "Ġkomplex": 5200,
      "Ġspeciali": 5201,
      "ĠÅĻeka": 5202,
      "ĠÄĮechÃ¡ch": 5203,
      "ĠprÅ¯mÄĽr": 5204,
      "Ġdynastie": 5205,
      "ĠzaÄįalo": 5206,
      "Ġdobro": 5207,
      "kajÃŃ": 5208,
      "ĠpohoÅĻÃŃ": 5209,
      "cÃ¡t": 5210,
      "novÃ©": 5211,
      "Å¾enil": 5212,
      "hoÅ¾": 5213,
      "artner": 5214,
      "gue": 5215,
      "ĠRobert": 5216,
      "Ġtor": 5217,
      "cenÃ¡": 5218,
      "Ġrezervace": 5219,
      "mas": 5220,
      "Ġpy": 5221,
      "Ġoblastech": 5222,
      "Ġdlouhod": 5223,
      "rnÃŃho": 5224,
      "gram": 5225,
      "rp": 5226,
      "ÅĻovÃ¡nÃŃ": 5227,
      "ebnÃŃ": 5228,
      "ÂłÃº": 5229,
      "Ġhraje": 5230,
      "Ġposti": 5231,
      "ĠsmÄĽru": 5232,
      "Ġhlubo": 5233,
      "mentÃ¡": 5234,
      "Ġstavba": 5235,
      "Ġfirma": 5236,
      "tili": 5237,
      "Ġnava": 5238,
      "ĠItÃ¡lie": 5239,
      "ernÃŃ": 5240,
      "Ġexistuje": 5241,
      "ĠnejvÃŃce": 5242,
      "Ġkonfli": 5243,
      "/h": 5244,
      "vatele": 5245,
      "ĠuskuteÄį": 5246,
      "Ġpostavena": 5247,
      "ĠznÃ¡mÃ©": 5248,
      "nskÃ¡": 5249,
      "ĠpatÅĻil": 5250,
      "ĠKSÄĮ": 5251,
      "ĠpÃŃseÅĪ": 5252,
      "Ġvzor": 5253,
      "Ġhlediska": 5254,
      "ĠsÃŃdlo": 5255,
      "cet": 5256,
      "Ġpom": 5257,
      "ĠPoli": 5258,
      "TÃŃm": 5259,
      "ĠzajÃŃ": 5260,
      "Ġodhad": 5261,
      "Ġcentrum": 5262,
      "ĠvedoucÃŃ": 5263,
      "Ã©ru": 5264,
      "ĠKni": 5265,
      "IS": 5266,
      "ĠrytÃŃ": 5267,
      "ĠPÅĻi": 5268,
      "ĠvÃ½chodÄĽ": 5269,
      "ĠpÃ©": 5270,
      "ĠLÃŃ": 5271,
      "ĠpÅ¯sobenÃŃ": 5272,
      "teru": 5273,
      "ĠniÅ¾Å¡ÃŃ": 5274,
      "chÃ½": 5275,
      "Ġge": 5276,
      "Ġkoncent": 5277,
      "ĠMilo": 5278,
      "Ġodbo": 5279,
      "ovodÃŃ": 5280,
      "entu": 5281,
      "Ġproud": 5282,
      "VÄĽtÅ¡ina": 5283,
      "ose": 5284,
      "ĠvelkÃ¡": 5285,
      "Ġnedaleko": 5286,
      "ĠÅ¾ebÅĻÃŃ": 5287,
      "cke": 5288,
      "ĠÄĮS": 5289,
      "nÃŃka": 5290,
      "ĠnemÄĽ": 5291,
      "Ġfestival": 5292,
      "Ġonemoc": 5293,
      "ĠnadÃ¡le": 5294,
      "-A": 5295,
      "jskÃ©": 5296,
      "mÄĽst": 5297,
      "ĠÅ¡vÃ©d": 5298,
      "sprÃ¡": 5299,
      "ĠbÃ¡s": 5300,
      "ĠAb": 5301,
      "stev": 5302,
      "ĠÄįervnu": 5303,
      "jak": 5304,
      "ĠNovÃ¡": 5305,
      "ces": 5306,
      "pri": 5307,
      "ĠÅĻÃŃjnu": 5308,
      "ĠAlba": 5309,
      "hol": 5310,
      "nom": 5311,
      "Ġbomb": 5312,
      "ĠsilnÄĽ": 5313,
      "vnitÅĻ": 5314,
      "ĠLes": 5315,
      "ĠÃºstÃŃ": 5316,
      "inami": 5317,
      "ĠÃļstÃŃ": 5318,
      "Å¯Å¾eme": 5319,
      "ĠdruhÃ¡": 5320,
      "ĠdruhÃ©ho": 5321,
      "Ã¡tky": 5322,
      "sledek": 5323,
      "ĠFC": 5324,
      "ĠklÃ¡Å¡tera": 5325,
      "vak": 5326,
      "ĠznaÄįnÄĽ": 5327,
      "ĠbÃ¡snÃŃ": 5328,
      "Ġjazyk": 5329,
      "ĠpÅĻestÄĽh": 5330,
      "jel": 5331,
      "ĠFil": 5332,
      "Ġbal": 5333,
      "Ġseznam": 5334,
      "ĠHan": 5335,
      "stickÃ½ch": 5336,
      "mÄĽru": 5337,
      "Ġlev": 5338,
      "ĠMari": 5339,
      "inem": 5340,
      "dak": 5341,
      "kost": 5342,
      "ĠpoÅ¾Ã¡": 5343,
      "ĠVar": 5344,
      "III": 5345,
      "Ġzaznamen": 5346,
      "ĠBoh": 5347,
      "ovnÄĽ": 5348,
      "slÃ¡": 5349,
      "Ġstylu": 5350,
      "ĠÅĻadÄĽ": 5351,
      "ĠpoÅ¾adav": 5352,
      "Ġdem": 5353,
      "Ġochrany": 5354,
      "ĠMistrovstvÃŃ": 5355,
      "Ġsrov": 5356,
      "Å¾ÃŃvÃ¡": 5357,
      "kynÄĽ": 5358,
      "ĠspoluprÃ¡ci": 5359,
      "ĠSlu": 5360,
      "ĠvÃ½ch": 5361,
      "Ġkov": 5362,
      "jna": 5363,
      "ĠMÃŃ": 5364,
      "Ġlep": 5365,
      "poÄįÃ¡tku": 5366,
      "ĠzamÄĽstnan": 5367,
      "biskup": 5368,
      "Ġmechani": 5369,
      "Ġsouvislosti": 5370,
      "ktura": 5371,
      "kom": 5372,
      "Ze": 5373,
      "oo": 5374,
      "ĠzÃ¡jem": 5375,
      "ĠNÄĽm": 5376,
      "ĠrozÅ¡ÃŃÅĻenÃŃ": 5377,
      "Ġrad": 5378,
      "Ġkonku": 5379,
      "ĠangliÄįt": 5380,
      "ĠTho": 5381,
      "Ġjezd": 5382,
      "ĠRom": 5383,
      "ĠprodÃ¡": 5384,
      "PamÄĽtihodnosti": 5385,
      "ĠveÅ¡": 5386,
      "ĠuspoÅĻÃ¡": 5387,
      "ĠstÃ¡tech": 5388,
      "nicÃŃch": 5389,
      "cemi": 5390,
      "ĠWilliam": 5391,
      "Ti": 5392,
      "najÃŃ": 5393,
      "ĠvÃ½znamnÃ©": 5394,
      "Ġuni": 5395,
      "Ġrozvo": 5396,
      "ĠvÄĽÅ¾": 5397,
      "ĠVÃ¡clava": 5398,
      "rali": 5399,
      "Ġpoj": 5400,
      "anÄĽ": 5401,
      "xe": 5402,
      "Å¾uje": 5403,
      "Ġkated": 5404,
      "ovnÃŃk": 5405,
      "Ġsled": 5406,
      "JiÅ¾": 5407,
      "nuje": 5408,
      "elÃŃ": 5409,
      "Ġotce": 5410,
      "ĠkÅ¯": 5411,
      "Ġmrt": 5412,
      "enti": 5413,
      "ĠuhlÃŃ": 5414,
      "leku": 5415,
      "Ġnepro": 5416,
      "ĠpamÃ¡tka": 5417,
      "Jde": 5418,
      "Pat": 5419,
      "Ġdiplo": 5420,
      "ĠVÃ¡": 5421,
      "dly": 5422,
      "ĠkrÃ¡lem": 5423,
      "Jak": 5424,
      "Ġol": 5425,
      "ĠvysvÄĽt": 5426,
      "hdy": 5427,
      "ÅĻka": 5428,
      "ĠpÅĻejmen": 5429,
      "Ġvar": 5430,
      "ĠprovÃ¡dÄĽ": 5431,
      "port": 5432,
      "ÂłM": 5433,
      "Ke": 5434,
      "zujÃŃcÃŃ": 5435,
      "Ġdostala": 5436,
      "ĠSim": 5437,
      "ĠmÄĽsÃŃcÅ¯": 5438,
      "ĠpÅĻenos": 5439,
      "ĠSal": 5440,
      "Ġzat": 5441,
      "zila": 5442,
      "ĠpÅĻedsedou": 5443,
      "Ġvzniklo": 5444,
      "hlav": 5445,
      "ĠskonÄįil": 5446,
      "Ġvystav": 5447,
      "ĠÄįleny": 5448,
      "lope": 5449,
      "ĠPr": 5450,
      "ĠpamÄĽ": 5451,
      "Ġstejnojmen": 5452,
      "PoslednÃŃ": 5453,
      "Ġprv": 5454,
      "ĠbÅĻeznu": 5455,
      "ĠWi": 5456,
      "ĠkÅĻe": 5457,
      "blÃŃ": 5458,
      "Ġorig": 5459,
      "dka": 5460,
      "ĠÄįlenovÃ©": 5461,
      "ologickÃ©": 5462,
      "ĠvÃ½robu": 5463,
      "ĠpoÄįÃŃtaÄį": 5464,
      "Ġrada": 5465,
      "nia": 5466,
      "ÅĻenÃŃm": 5467,
      "ĠtÃ©m": 5468,
      "ban": 5469,
      "Ch": 5470,
      "ĠÄįlovÄĽk": 5471,
      "Äįkoliv": 5472,
      "ĠAmeriky": 5473,
      "aka": 5474,
      "ĠvzdÃ¡lenosti": 5475,
      "ĠzaloÅ¾enÃŃ": 5476,
      "adis": 5477,
      "Ġverzi": 5478,
      "nÃ¡cti": 5479,
      "lastnÃŃ": 5480,
      "ĠFrantiÅ¡ka": 5481,
      "ĠÅ¾ivoÄįi": 5482,
      "Ġobvodu": 5483,
      "Ġjsem": 5484,
      "ĠKla": 5485,
      "Ġduch": 5486,
      "ĠvnitÅĻnÃŃ": 5487,
      "ĠKrÃ¡lov": 5488,
      "rak": 5489,
      "zenÃ½": 5490,
      "ĠdesÃŃ": 5491,
      "rag": 5492,
      "ĠspeciÃ¡lnÃŃ": 5493,
      "ĠmÃŃr": 5494,
      "Ġdop": 5495,
      "ĠOl": 5496,
      "Ġcesta": 5497,
      "ÅĻenÃ¡": 5498,
      "ĠpovaÅ¾ovÃ¡n": 5499,
      "ĠtÃ½d": 5500,
      "Ġspecifi": 5501,
      "Ġryb": 5502,
      "Ġstati": 5503,
      "Ġstanici": 5504,
      "ĠdÅ¯sto": 5505,
      "toÅĻi": 5506,
      "ĠmlÃ½": 5507,
      "stila": 5508,
      "pozice": 5509,
      "Ġfilmy": 5510,
      "wer": 5511,
      "ÄįnÃ½ch": 5512,
      "Ġsedmi": 5513,
      "Ġzobra": 5514,
      "ĠsportovnÃŃ": 5515,
      "ĠvyuÅ¾itÃŃ": 5516,
      "ĠnachÃ¡zejÃŃ": 5517,
      "ĠbodÅ¯": 5518,
      "Ġnapro": 5519,
      "kÃ½mi": 5520,
      "ĠFu": 5521,
      "ye": 5522,
      "ĠWa": 5523,
      "ĠÅ½idÃ©": 5524,
      "AT": 5525,
      "Ñģ": 5526,
      "ĠvÃ¡le": 5527,
      "racÃŃ": 5528,
      "ister": 5529,
      "ĠNovÃ©": 5530,
      "Auto": 5531,
      "zkum": 5532,
      "Ġakci": 5533,
      "ĠnepÅĻe": 5534,
      "Ġdomu": 5535,
      "Ġhus": 5536,
      "ĠletiÅ¡tÄĽ": 5537,
      "ĠAustrÃ¡": 5538,
      "ĠblÃŃzkosti": 5539,
      "kvi": 5540,
      "ĠpÅĻesvÄĽd": 5541,
      "ĠnavÅ¡tÃŃ": 5542,
      "Ġprakticky": 5543,
      "ĠDolnÃŃ": 5544,
      "Ġosad": 5545,
      "Ġvrcholu": 5546,
      "ĠposlednÃŃch": 5547,
      "ĠaktivnÃŃ": 5548,
      "Ġdruhu": 5549,
      "Ġoku": 5550,
      "Ġpovrchu": 5551,
      "ĠMiku": 5552,
      "ĠfinanÄįnÃŃ": 5553,
      "ĠskuteÄįnosti": 5554,
      "mno": 5555,
      "loÅ¾": 5556,
      "ĠAugu": 5557,
      "Ġsho": 5558,
      "hledÃ¡": 5559,
      "ĠkaÅ¾dÃ©": 5560,
      "leg": 5561,
      "ĠAlb": 5562,
      "ĠpÅĻechod": 5563,
      "ĠKali": 5564,
      "ÅĻenÃ½": 5565,
      "Ġps": 5566,
      "chou": 5567,
      "ĠhnÃŃ": 5568,
      "Ġrostou": 5569,
      "Ġliteratu": 5570,
      "Ġsvaz": 5571,
      "ĠpÅĻÃ¡tel": 5572,
      "Ã©f": 5573,
      "Ġzpo": 5574,
      "feren": 5575,
      "Ġnese": 5576,
      "lovÃ½": 5577,
      "vnÄĽnÃŃ": 5578,
      "ĠnakladatelstvÃŃ": 5579,
      "Galerie": 5580,
      "ĠvÃ½Å¡e": 5581,
      "ĠCi": 5582,
      "Lo": 5583,
      "Ġbronz": 5584,
      "Ġmajetku": 5585,
      "Ġrefor": 5586,
      "Å¡echny": 5587,
      "ĠzboÅ¾ÃŃ": 5588,
      "ĠvÃ½tvar": 5589,
      "diÅ¡tÄĽ": 5590,
      "Ġpodnik": 5591,
      "Ġherec": 5592,
      "ĠcelÃ¡": 5593,
      "ĠsÄįÃŃtÃ¡nÃŃ": 5594,
      "Ġkle": 5595,
      "ÄįÃŃch": 5596,
      "rgani": 5597,
      "ĠdÅ¯vodÅ¯": 5598,
      "Ġinten": 5599,
      "Ġkonzerva": 5600,
      "mosfÃ©": 5601,
      "novÃ¡": 5602,
      "ĠnejznÃ¡mÄĽjÅ¡ÃŃ": 5603,
      "Ġstandar": 5604,
      "ĠWar": 5605,
      "slednÃŃm": 5606,
      "onali": 5607,
      "Ġjazyka": 5608,
      "telnÃ½": 5609,
      "Ġrock": 5610,
      "jice": 5611,
      "ĠÄįeledi": 5612,
      "celÃ¡": 5613,
      "ĠliterÃ¡rnÃŃ": 5614,
      "kre": 5615,
      "eder": 5616,
      "ĠÃºÅĻednÃŃ": 5617,
      "ĠÄįlÃ¡n": 5618,
      "lejÅ¡ÃŃ": 5619,
      "tec": 5620,
      "Ġpor": 5621,
      "Ġlegen": 5622,
      "ĠKarlovy": 5623,
      "Ġskupinu": 5624,
      "ĠAir": 5625,
      "Ġmys": 5626,
      "Äįeny": 5627,
      "ĠzmÄĽny": 5628,
      "Ġstu": 5629,
      "Ġligy": 5630,
      "ĠvykonÃ¡": 5631,
      "ĠhrÃ¡ch": 5632,
      "Ġexperi": 5633,
      "Ġmedi": 5634,
      "Ġturi": 5635,
      "ĠPu": 5636,
      "ĠTr": 5637,
      "Ġmuzeum": 5638,
      "ĠuloÅ¾en": 5639,
      "Ġobyvatelstva": 5640,
      "ĠprobÄĽ": 5641,
      "ĠTÄĽ": 5642,
      "ĠzahraniÄįÃŃ": 5643,
      "Ġana": 5644,
      "ĠHal": 5645,
      "ĠYou": 5646,
      "ĠpÃ¡s": 5647,
      "Äįina": 5648,
      "rativnÃŃ": 5649,
      "ĠÂ": 5650,
      "ĠpracÃŃ": 5651,
      "ĠskupinÄĽ": 5652,
      "ĠSed": 5653,
      "ĠsloÅ¾en": 5654,
      "ĠtÃŃmto": 5655,
      "Ġvelikosti": 5656,
      "Ġtechnologi": 5657,
      "ĠvÃ½roby": 5658,
      "brojen": 5659,
      "chÃ©": 5660,
      "Ġboji": 5661,
      "ĠMag": 5662,
      "arda": 5663,
      "Ġprodlou": 5664,
      "ĠpÅĻelomu": 5665,
      "AR": 5666,
      "ĠnÄĽmeckÃ½": 5667,
      "ĠoÅ¾enil": 5668,
      "ÄįnÃŃk": 5669,
      "Ġkapaci": 5670,
      "Ġprojev": 5671,
      "ĠnÄĽco": 5672,
      "Ġrostliny": 5673,
      "ĠzÃ¡ch": 5674,
      "ĠnadmoÅĻskÃ©": 5675,
      "ĠjedinÃ½": 5676,
      "ĠobdrÅ¾el": 5677,
      "tÃ¡ch": 5678,
      "jednÃ¡": 5679,
      "ĠSb": 5680,
      "Ġdubnu": 5681,
      "toru": 5682,
      "Ġdomin": 5683,
      "Ġnosi": 5684,
      "ĠliÅ¡ÃŃ": 5685,
      "Ġjinak": 5686,
      "Ġsoudu": 5687,
      "Äįili": 5688,
      "lÃ©ze": 5689,
      "So": 5690,
      "Ġjich": 5691,
      "ĠJeruzal": 5692,
      "enÃ½ch": 5693,
      "Ġpropa": 5694,
      "ovskÃ©": 5695,
      "Ġprince": 5696,
      "ĠsouÄįasnÄĽ": 5697,
      "Ġagen": 5698,
      "ovÃ¡ni": 5699,
      "Ġoprav": 5700,
      "Ġmatka": 5701,
      "Ġmohla": 5702,
      "ĠnovinÃ¡": 5703,
      "Obyvatel": 5704,
      "padech": 5705,
      "ĠUniversity": 5706,
      "ĠUni": 5707,
      "Ġpodzim": 5708,
      "ĠPardubi": 5709,
      "stein": 5710,
      "ĠtÅĻech": 5711,
      "orÅ¯": 5712,
      "kovat": 5713,
      "Ġparlament": 5714,
      "ĠEgyp": 5715,
      "ĠLabem": 5716,
      "Å¡a": 5717,
      "Podob": 5718,
      "ovicÃŃch": 5719,
      "ĠsevernÄĽ": 5720,
      "ĠRichard": 5721,
      "ĠOsob": 5722,
      "Ġvozy": 5723,
      "Ġdcera": 5724,
      "ĠItÃ¡lii": 5725,
      "Ġnesou": 5726,
      "dub": 5727,
      "ÅĻicha": 5728,
      "stau": 5729,
      "Ġdale": 5730,
      "Ġtajem": 5731,
      "Stav": 5732,
      "fil": 5733,
      "Ġrole": 5734,
      "tur": 5735,
      "hodno": 5736,
      "ĠMÄĽsta": 5737,
      "nÄĽny": 5738,
      "Ġvojska": 5739,
      "nÄĽno": 5740,
      "anÅ¯": 5741,
      "Âłnich": 5742,
      "haj": 5743,
      "Ġadminist": 5744,
      "Ġzdravot": 5745,
      "Ġhovo": 5746,
      "ons": 5747,
      "ĠjiÅ¾nÄĽ": 5748,
      "MÄĽsto": 5749,
      "Ġcho": 5750,
      "ĠLan": 5751,
      "ĠUher": 5752,
      "Å¡enÃ¡": 5753,
      "tav": 5754,
      "ĠpÃŃsnÃŃ": 5755,
      "ĠsÃŃtÄĽ": 5756,
      "rÃ¡n": 5757,
      "ĠpÅĻiÅ¡el": 5758,
      "hynu": 5759,
      "ĠCan": 5760,
      "Ġreprezent": 5761,
      "Ġpomoci": 5762,
      "zovanÃ©": 5763,
      "lest": 5764,
      "Å¡tÄĽv": 5765,
      "Ġvztahy": 5766,
      "tologi": 5767,
      "skytuje": 5768,
      "Ġvrst": 5769,
      "lili": 5770,
      "ĠSc": 5771,
      "ĠLet": 5772,
      "ĠzÃ¡pa": 5773,
      "Ġrozloze": 5774,
      "ĠTri": 5775,
      "okres": 5776,
      "ĠoficiÃ¡lnÄĽ": 5777,
      "ÄįanÃ©": 5778,
      "Ġuvol": 5779,
      "ĠnÃ¡vratu": 5780,
      "Ġemi": 5781,
      "ĠstÅĻÃŃbr": 5782,
      "PrÃ¡": 5783,
      "ÃĹ": 5784,
      "ĠpodmÃŃn": 5785,
      "inskÃ©": 5786,
      "ĠplatÃŃ": 5787,
      "ĠstarovÄĽ": 5788,
      "ĠpÅĻÃŃsluÅ¡nÃŃ": 5789,
      "ĠRudolf": 5790,
      "mali": 5791,
      "ĠÄįÃŃsla": 5792,
      "Vi": 5793,
      "ĠYorku": 5794,
      "CO": 5795,
      "ĠobecnÄĽ": 5796,
      "Ġdnech": 5797,
      "NapÅĻÃŃklad": 5798,
      "ĠPat": 5799,
      "ktiv": 5800,
      "CÃŃ": 5801,
      "anice": 5802,
      "rka": 5803,
      "Ġnepod": 5804,
      "ĠNarodil": 5805,
      "ĠhlavnÃŃch": 5806,
      "Ġupraven": 5807,
      "ÅĻuje": 5808,
      "Ġsebou": 5809,
      "ecÃ©": 5810,
      "toky": 5811,
      "ÂłnÄĽ": 5812,
      "ĠPÅĻed": 5813,
      "ĠpomÃ¡": 5814,
      "ĠSrb": 5815,
      "vaz": 5816,
      "mÃŃstÄĽ": 5817,
      "dows": 5818,
      "ĠÃºzem": 5819,
      "ĠTel": 5820,
      "ilÃŃ": 5821,
      "dajÃŃcÃŃ": 5822,
      "Ġcestu": 5823,
      "cas": 5824,
      "ÂłA": 5825,
      "ĠdosÃ¡hl": 5826,
      "stiky": 5827,
      "ĠdivÃ¡": 5828,
      "ĠzaÄįali": 5829,
      "Âłlet": 5830,
      "Ġvelitel": 5831,
      "ovanÃ½m": 5832,
      "Jan": 5833,
      "ĠpÅĻÃŃpadech": 5834,
      "ampi": 5835,
      "ĠInter": 5836,
      "Ġobjevuje": 5837,
      "Jedno": 5838,
      "ĠÎ": 5839,
      "ĠudrÅ¾": 5840,
      "Ġhost": 5841,
      "absbur": 5842,
      "ÑĤ": 5843,
      "Ġobrov": 5844,
      "Ãļ": 5845,
      "ĠolympijskÃ½ch": 5846,
      "ĠtakovÃ©": 5847,
      "Ġrukou": 5848,
      "mkou": 5849,
      "ĠpÅĻines": 5850,
      "ÂłpÅĻÃŃ": 5851,
      "Ġminut": 5852,
      "ĠzkuÅ¡eno": 5853,
      "Ġstrate": 5854,
      "ĠdÄĽdictvÃŃ": 5855,
      "Å¾enÃŃm": 5856,
      "Ġgu": 5857,
      "ostro": 5858,
      "Ġpodnika": 5859,
      "Ġtext": 5860,
      "Ġrepublika": 5861,
      "Ġdeset": 5862,
      "ĠnÃ¡moÅĻnict": 5863,
      "ĠzvyÅ¡": 5864,
      "Ġpsa": 5865,
      "dÃ¡ch": 5866,
      "ĠpanovnÃŃ": 5867,
      "âĢ¦": 5868,
      "Ġvlastnosti": 5869,
      "ĠmanÅ¾elstvÃŃ": 5870,
      "Ġletu": 5871,
      "ĠkÅĻiÅ¾": 5872,
      "ProtoÅ¾e": 5873,
      "ĠCe": 5874,
      "Ġkor": 5875,
      "ĠBou": 5876,
      "-D": 5877,
      "Ġkome": 5878,
      "ode": 5879,
      "esan": 5880,
      "ĠkusÅ¯": 5881,
      "risto": 5882,
      "Ġredak": 5883,
      "Ġzkra": 5884,
      "www": 5885,
      "Ġdisk": 5886,
      "Ġobjem": 5887,
      "ĠfrancouzskÃ½": 5888,
      "Nak": 5889,
      "ĠpodmÃŃnky": 5890,
      "Å¡enÃŃm": 5891,
      "Ġwebu": 5892,
      "mm": 5893,
      "Ġostrova": 5894,
      "Äįilo": 5895,
      "ĠsÃŃdlÃŃ": 5896,
      "kovit": 5897,
      "ĠDiva": 5898,
      "Ġdivadlo": 5899,
      "ĠÄįp": 5900,
      "ovky": 5901,
      "lÃ©m": 5902,
      "ĠprimÃ¡": 5903,
      "vakrÃ¡t": 5904,
      "Ġosa": 5905,
      "ĠdolarÅ¯": 5906,
      "ĠUniverzity": 5907,
      "Ru": 5908,
      "ĠSS": 5909,
      "ĠsenÃ¡": 5910,
      "udebnÃŃ": 5911,
      "ĠnÃ¡vrh": 5912,
      "ĠStav": 5913,
      "Ġtvar": 5914,
      "Palo": 5915,
      "ĠvychÃ¡zÃŃ": 5916,
      "ĠvÃ½stup": 5917,
      "ĠAsie": 5918,
      "Ġaktu": 5919,
      "Ġzachy": 5920,
      "Ġsrpnu": 5921,
      "ĠzemÄĽdÄĽlstvÃŃ": 5922,
      "ĠRusku": 5923,
      "pela": 5924,
      "ĠodehrÃ¡l": 5925,
      "ĠÅ½eny": 5926,
      "ĠRus": 5927,
      "hne": 5928,
      "tugal": 5929,
      "Ġresp": 5930,
      "ords": 5931,
      "AN": 5932,
      "Ġhttp": 5933,
      "Ġbombard": 5934,
      "Ġvzhledem": 5935,
      "inc": 5936,
      "Ġbak": 5937,
      "ĠÄįervenci": 5938,
      "ĠVoj": 5939,
      "ĠmÅ¯Å¾eme": 5940,
      "ĠuÅ¾ivatel": 5941,
      "ĠSvobod": 5942,
      "ĠspotÅĻe": 5943,
      "Ġdata": 5944,
      "ĠvÅ¡ichni": 5945,
      "Ġzlep": 5946,
      "Ġcelo": 5947,
      "ĠÃºnoru": 5948,
      "ĠZe": 5949,
      "ĠprobÃŃhÃ¡": 5950,
      "ovitÃ©": 5951,
      "DÃŃlo": 5952,
      "formace": 5953,
      "ÂłnÃ¡": 5954,
      "Ġprvo": 5955,
      "ĠlÃ©tÄĽ": 5956,
      "ĠkatastrÃ¡lnÃŃm": 5957,
      "ĠAvi": 5958,
      "ĠnÃ¡hra": 5959,
      "Palomar": 5960,
      "Ġkniha": 5961,
      "ĠnÃ¡zvu": 5962,
      "Sy": 5963,
      "Ġer": 5964,
      "Âłsou": 5965,
      "Ġfede": 5966,
      "Ġuplat": 5967,
      "AM": 5968,
      "ĠbaroknÃŃ": 5969,
      "Ġkru": 5970,
      "yer": 5971,
      "Ġcit": 5972,
      "Ġkyta": 5973,
      "ĠnÄĽmu": 5974,
      "ford": 5975,
      "ĠproblÃ©m": 5976,
      "atÃŃm": 5977,
      "Ġvesnici": 5978,
      "Spolu": 5979,
      "ĠTer": 5980,
      "kono": 5981,
      "Ð¾Ð": 5982,
      "ĠchovÃ¡nÃŃ": 5983,
      "Ġneboli": 5984,
      "ĠdivadelnÃŃ": 5985,
      "ovnÃŃch": 5986,
      "ĠpÅĻÃŃbÄĽh": 5987,
      "ĠjednotlivÃ©": 5988,
      "ĠpÅĻispÄĽ": 5989,
      "novÄĽ": 5990,
      "Ġserver": 5991,
      "jo": 5992,
      "tora": 5993,
      "ĠpoÅĻÃ¡": 5994,
      "vÃŃje": 5995,
      "Ġmost": 5996,
      "ove": 5997,
      "ĠKos": 5998,
      "Ġinve": 5999,
      "vujÃŃ": 6000,
      "Ã¡du": 6001,
      "ĠpÅĻÃ¡": 6002,
      "vÄĽtna": 6003,
      "ĠzÃ¡padÄĽ": 6004,
      "Ġobo": 6005,
      "Ġbio": 6006,
      "cro": 6007,
      "etro": 6008,
      "Ġsmlouvy": 6009,
      "Ġzap": 6010,
      "ried": 6011,
      "ĠsignÃ¡": 6012,
      "ĠvÃ½konu": 6013,
      "ÅĻÃŃm": 6014,
      "ĠpoÅĻadÃŃ": 6015,
      "ÄįekÃ¡": 6016,
      "ĠOS": 6017,
      "kupina": 6018,
      "ĠÃºÅĻadu": 6019,
      "ĠVeli": 6020,
      "ÅĻskÃ¡": 6021,
      "anem": 6022,
      "ĠcestÄĽ": 6023,
      "typ": 6024,
      "ĠostrovÄĽ": 6025,
      "ĠÃºdajnÄĽ": 6026,
      "ĠhvÄĽzd": 6027,
      "ĠÃºÄįe": 6028,
      "Ġboje": 6029,
      "ĠzvlÃ¡Å¡tnÃŃ": 6030,
      "exist": 6031,
      "Ġjader": 6032,
      "tzv": 6033,
      "ĠnÄĽmeckÃ©ho": 6034,
      "ĠIzraeli": 6035,
      "viz": 6036,
      "Ġvaz": 6037,
      "ĠreÃ¡l": 6038,
      "tÄĽjÅ¡ÃŃ": 6039,
      "Ġvypu": 6040,
      "kÃ¡n": 6041,
      "pti": 6042,
      "ĠkterÃ©mu": 6043,
      "ĠroÄįnÃŃku": 6044,
      "lant": 6045,
      "ĠnavÃ¡": 6046,
      "-H": 6047,
      "ĠMad": 6048,
      "ĠstÃŃha": 6049,
      "Ã¡ny": 6050,
      "Ġliteratury": 6051,
      "listopadu": 6052,
      "Ġspad": 6053,
      "mber": 6054,
      "vÄĽty": 6055,
      "doro": 6056,
      "ĠÄĮeskoslovensku": 6057,
      "Ġuprch": 6058,
      "ĠKostel": 6059,
      "oda": 6060,
      "ĠelektrÃ¡": 6061,
      "zili": 6062,
      "morav": 6063,
      "but": 6064,
      "ĠatmosfÃ©": 6065,
      "ĠBru": 6066,
      "ĠkandidÃ¡": 6067,
      "ĠsÃŃdlem": 6068,
      "pati": 6069,
      "ÂłP": 6070,
      "ĠlÃ¡tky": 6071,
      "ĠneznÃ¡": 6072,
      "davatel": 6073,
      "ĠnÃ¡rodnosti": 6074,
      "Ġforma": 6075,
      "taÄįnÃŃ": 6076,
      "ĠWorld": 6077,
      "ĠBritÃ¡nie": 6078,
      "Ġizo": 6079,
      "ĠprÅ¯myslu": 6080,
      "ĠpÅĻÃŃbuz": 6081,
      "slem": 6082,
      "Ġrodina": 6083,
      "ĠVz": 6084,
      "ĠstÅĻedi": 6085,
      "ĠgenerÃ¡l": 6086,
      "ĠporÃ¡Å¾": 6087,
      "rnÃŃm": 6088,
      "cher": 6089,
      "znaÄį": 6090,
      "anskÃ©": 6091,
      "spoÅĪ": 6092,
      "ĠÄįeskoslovenskÃ©": 6093,
      "ĠMoravÄĽ": 6094,
      "TP": 6095,
      "xy": 6096,
      "Ġzim": 6097,
      "Ġspor": 6098,
      "nin": 6099,
      "ĠDou": 6100,
      "ĠsluÅ¾eb": 6101,
      "Ġdoprav": 6102,
      "ĠAmeriÄįtÃŃ": 6103,
      "ĠPh": 6104,
      "Ġkomunikace": 6105,
      "ĠfrancouzskÃ©": 6106,
      "Bylo": 6107,
      "ls": 6108,
      "Ġgenerace": 6109,
      "ĠpÅĻesunu": 6110,
      "kovice": 6111,
      "Dnes": 6112,
      "Ġsli": 6113,
      "Ġletect": 6114,
      "Ġkop": 6115,
      "ĠEvropskÃ©": 6116,
      "iss": 6117,
      "ĠGer": 6118,
      "kovÃ½m": 6119,
      "ĠÅ½elez": 6120,
      "nova": 6121,
      "ĠCent": 6122,
      "ĠArt": 6123,
      "ĠveÅ¡ker": 6124,
      "ĠWas": 6125,
      "sche": 6126,
      "Ġnebyly": 6127,
      "Ġjednom": 6128,
      "ÂłI": 6129,
      ");": 6130,
      "ÅĻeno": 6131,
      "ĠvozÅ¯": 6132,
      "bami": 6133,
      "ĠsystÃ©my": 6134,
      "chen": 6135,
      "ĠEr": 6136,
      "Co": 6137,
      "ĠvznikÃ¡": 6138,
      "metry": 6139,
      "venti": 6140,
      "Ġcu": 6141,
      "ĠÅ¾Ã¡dnÃ½": 6142,
      "ĠdlouhÃ¡": 6143,
      "ĠCam": 6144,
      "anglicky": 6145,
      "zovÃ¡nÃŃ": 6146,
      "ckÃ©mu": 6147,
      "Ġokruhu": 6148,
      "Å¡to": 6149,
      "ĠskonÄįila": 6150,
      "Ġorch": 6151,
      "jila": 6152,
      "Ġnedosta": 6153,
      "ĠTat": 6154,
      "Ġstart": 6155,
      "ĠÃºko": 6156,
      "ĠVÃŃdni": 6157,
      "Mu": 6158,
      "Ġkg": 6159,
      "enty": 6160,
      "ĠOld": 6161,
      "ĠsprÃ¡vy": 6162,
      "nickou": 6163,
      "ĠpÅĻijÃŃ": 6164,
      "Ġkontra": 6165,
      "ĠvyÅ¾ad": 6166,
      "ĠpalÃ¡": 6167,
      "Ġpropo": 6168,
      "SD": 6169,
      "obra": 6170,
      "metri": 6171,
      "Ġpale": 6172,
      "pisy": 6173,
      "lze": 6174,
      "ĠLy": 6175,
      "ins": 6176,
      "lor": 6177,
      "kovy": 6178,
      "ĠocenÄĽnÃŃ": 6179,
      "Vzhledem": 6180,
      "ĠobtÃŃ": 6181,
      "ĠuÄįitel": 6182,
      "Ġust": 6183,
      "ĠvyÅ¡et": 6184,
      "nor": 6185,
      "ĠnutnÃ©": 6186,
      "dnÃ¡": 6187,
      "iÅ¡tÄĽ": 6188,
      "ĠÅ¡pi": 6189,
      "odo": 6190,
      "Ġchud": 6191,
      "ĠslouÅ¾il": 6192,
      "ĠÅĻeditel": 6193,
      "ĠpÅĻednÃŃ": 6194,
      "stÅĻednÃŃ": 6195,
      "ĠnejvÄĽtÅ¡ÃŃm": 6196,
      "Ġslovo": 6197,
      "tex": 6198,
      "ĠMor": 6199,
      "Ġzastupitel": 6200,
      "kar": 6201,
      "ĠoddÄĽlenÃŃ": 6202,
      "Ġmajetek": 6203,
      "ĠÃºspÄĽch": 6204,
      "Äįkoli": 6205,
      "Ġdinosau": 6206,
      "tali": 6207,
      "ĠPeter": 6208,
      "ĠtrÅ¯n": 6209,
      "ĠEuro": 6210,
      "Ġtest": 6211,
      "ulti": 6212,
      "Ġmuzea": 6213,
      "ĠÅ¾ebÅĻÃŃÄįku": 6214,
      "Äįov": 6215,
      "kovÃ¡nÃŃ": 6216,
      "studoval": 6217,
      "ĠpÃ¡r": 6218,
      "ĠhÃ¡": 6219,
      "Br": 6220,
      "ĠnÃ¡rodnÃŃho": 6221,
      "/s": 6222,
      "enou": 6223,
      "lebnÃŃ": 6224,
      "Ġarcibiskup": 6225,
      "bri": 6226,
      "Ġunie": 6227,
      "ĠposÃŃ": 6228,
      "mÃŃru": 6229,
      "Ġmono": 6230,
      "Ġminim": 6231,
      "jezdu": 6232,
      "Ġini": 6233,
      "hut": 6234,
      "CH": 6235,
      "ĠorgÃ¡n": 6236,
      "Âłto": 6237,
      "ney": 6238,
      "anech": 6239,
      "ĠpÅĻesnÄĽ": 6240,
      "Ġrekord": 6241,
      "ĠRos": 6242,
      "Ġskladeb": 6243,
      ".org": 6244,
      "Å¡ila": 6245,
      "Ġkategorie": 6246,
      "Âłmm": 6247,
      "ĠpovÃ½": 6248,
      "pera": 6249,
      "vÃ©st": 6250,
      "Seznam": 6251,
      "ĠchvÃŃ": 6252,
      "ĠPodle": 6253,
      "Ġfilozofi": 6254,
      "Ġkapely": 6255,
      "ĠveÅĻejnosti": 6256,
      "fie": 6257,
      "ĠMla": 6258,
      "Ġoh": 6259,
      "Ġknize": 6260,
      "ĠCH": 6261,
      "jal": 6262,
      "Ġnapad": 6263,
      "Ġhned": 6264,
      "ĠtÄĽlo": 6265,
      "ĠPetra": 6266,
      "ĠÃºrovni": 6267,
      "Ġsituaci": 6268,
      "ĠstarÃ©": 6269,
      "ĠchÃ¡": 6270,
      "Bio": 6271,
      "ĠPal": 6272,
      "Å¡ku": 6273,
      "ĠmalÃ½": 6274,
      "ĠLeo": 6275,
      "Ġinterpre": 6276,
      "Ã¡rnÃŃ": 6277,
      "end": 6278,
      "ĠevidovÃ¡no": 6279,
      "Å¾ela": 6280,
      "Ġlisty": 6281,
      "Ã©ma": 6282,
      "ĠÄįest": 6283,
      "lena": 6284,
      "ĠMexi": 6285,
      "Ġmj": 6286,
      "ĠVan": 6287,
      "ĠsÃ³": 6288,
      "ĠKat": 6289,
      "Ġautorem": 6290,
      "Tra": 6291,
      "Ġdosahuje": 6292,
      "Exist": 6293,
      "Ġoproti": 6294,
      "ĠChu": 6295,
      "lÃŃna": 6296,
      "koho": 6297,
      "ĠpouÅ¾ÃŃt": 6298,
      "ĠnÄĽmeckÃ½ch": 6299,
      "Å¾ka": 6300,
      "Ġmona": 6301,
      "ĠÄįÃŃsel": 6302,
      "ĠNÄĽmecko": 6303,
      "pÃ¡n": 6304,
      "ĠmalÃŃÅĻ": 6305,
      "ĠAmerice": 6306,
      "ĠzbranÄĽ": 6307,
      "cenÃ©": 6308,
      "Ġchce": 6309,
      "ĠÅ¾ena": 6310,
      "ĠpraÅ¾skÃ©": 6311,
      "snÃ©": 6312,
      "puÅ¡tÄĽnÃŃ": 6313,
      "Ã¡la": 6314,
      "Ġtem": 6315,
      "Ġsmyslu": 6316,
      "ĠFilmy": 6317,
      "ĠWindows": 6318,
      "Stej": 6319,
      "PÅ¯vodnÄĽ": 6320,
      "Ġmetra": 6321,
      "ĠzÃ¡leÅ¾ito": 6322,
      "×Ļ": 6323,
      "Ġoperace": 6324,
      "Å¡skÃ©": 6325,
      "ĠTÃ¡": 6326,
      "Ġmoderni": 6327,
      "ĠveÅĻejnÃ©": 6328,
      "ĠGrand": 6329,
      "Ġakademie": 6330,
      "-L": 6331,
      "kuje": 6332,
      "ĠÃºtoku": 6333,
      "war": 6334,
      "ĠvnÃŃm": 6335,
      "ĠmÄĽÅĻÃŃ": 6336,
      "ono": 6337,
      "seud": 6338,
      "ĠjÃŃm": 6339,
      "Ġhodnoty": 6340,
      "Ġvysoko": 6341,
      "ĠArg": 6342,
      "ĠHory": 6343,
      "Å¾a": 6344,
      "Ġbou": 6345,
      "Ġ%.": 6346,
      "Ġposlan": 6347,
      "Å¾nÃ¡": 6348,
      "Ġlig": 6349,
      "tiky": 6350,
      "Ġstaly": 6351,
      "Ġpostavy": 6352,
      "Literatura": 6353,
      "Ġosvobo": 6354,
      "ĠduchovnÃŃ": 6355,
      "ĠzaklÃ¡": 6356,
      "ĠanalÃ½": 6357,
      "ĠevropskÃ½ch": 6358,
      "ĠstavebnÃŃ": 6359,
      "Ġstanovi": 6360,
      "fin": 6361,
      "ĠsklÃ¡dÃ¡": 6362,
      "stri": 6363,
      "ĠCD": 6364,
      "Ġx": 6365,
      "ĠhÅĻi": 6366,
      "ĠtorpÃ©": 6367,
      "Ġdny": 6368,
      "ĠKry": 6369,
      "ĠznÃ¡mÃ¡": 6370,
      "-P": 6371,
      "ĠKle": 6372,
      "Ġosoby": 6373,
      "ĠposlÃ©ze": 6374,
      "lovi": 6375,
      "dky": 6376,
      "ĠprotÃ©kÃ¡": 6377,
      "dobÃŃ": 6378,
      "ĠChi": 6379,
      "ÅĻÃŃjna": 6380,
      "ZatÃŃm": 6381,
      "Ġrespe": 6382,
      "ĠhistorickÃ©": 6383,
      "Ġmla": 6384,
      "lÃ½m": 6385,
      "Ġdisku": 6386,
      "Ġsmlouvu": 6387,
      "plÃ¡": 6388,
      "ĠSSSR": 6389,
      "stoupit": 6390,
      "ĠvÃ½roba": 6391,
      "ÄĮÃ¡": 6392,
      "Ġrevoluce": 6393,
      "ĠMÄĽst": 6394,
      "ĠsdruÅ¾enÃŃ": 6395,
      "Ã©ry": 6396,
      "Ġpotoka": 6397,
      "zenÃ½ch": 6398,
      "Äįlen": 6399,
      "ĠpÅ¯dy": 6400,
      "Ġalb": 6401,
      "inek": 6402,
      "ĠvojÃ¡kÅ¯": 6403,
      "ĠIl": 6404,
      "denÄĽk": 6405,
      "ÅĻskÃ½": 6406,
      "ĠdÅĻÃŃ": 6407,
      "remi": 6408,
      "pem": 6409,
      "ÄįenÃ¡": 6410,
      "Ġtrval": 6411,
      "loha": 6412,
      "ĠNizozem": 6413,
      "endÃ¡": 6414,
      "ĠcelkovÃ©": 6415,
      "ĠRod": 6416,
      "zz": 6417,
      "git": 6418,
      "Ġost": 6419,
      "ĠRecords": 6420,
      "ĠoddÄĽ": 6421,
      "hn": 6422,
      "Ġtakto": 6423,
      "ĠinÅ¾enÃ½": 6424,
      "ĠvÃ½sledky": 6425,
      "kva": 6426,
      "gypt": 6427,
      "Ġbarvy": 6428,
      "-K": 6429,
      "ĠTour": 6430,
      "Ġdaleko": 6431,
      "stek": 6432,
      "ĠosÃŃdlenÃŃ": 6433,
      "ĠvzdÄĽlÃ¡nÃŃ": 6434,
      "Ġzel": 6435,
      "ĠnÃ¡sledujÃŃcÃŃch": 6436,
      "moÅĻÃ¡d": 6437,
      "TÄĽ": 6438,
      "ĠSaint": 6439,
      "Ġkomise": 6440,
      "tomÄĽ": 6441,
      "Â³": 6442,
      "ĠzabÃŃ": 6443,
      "ĠjelikoÅ¾": 6444,
      "ĠGar": 6445,
      "ĠkÃ³d": 6446,
      "nÄĽnÃ½": 6447,
      "Ġvstoupil": 6448,
      "Ġroste": 6449,
      "ĠAntonÃŃn": 6450,
      "rovat": 6451,
      "Ġvlivem": 6452,
      "Ġilu": 6453,
      "lacÃŃ": 6454,
      "vÃ¡l": 6455,
      "Ġdoporu": 6456,
      "Ġmohli": 6457,
      "inaci": 6458,
      "gickÃ©": 6459,
      "Ġmotor": 6460,
      "ĠpÅĻedtÃŃm": 6461,
      "zaÄįnÃŃ": 6462,
      "ĠstÅĻedovÄĽku": 6463,
      "ĠjakÃ©": 6464,
      "ĠklavÃŃ": 6465,
      "ĠvytvÃ¡ÅĻÃŃ": 6466,
      "ĠÅĻÃŃmskÃ©": 6467,
      "Ġklen": 6468,
      "Ġhrob": 6469,
      "stickou": 6470,
      "ĠMiro": 6471,
      "ĠGali": 6472,
      "Ġrizi": 6473,
      "tiku": 6474,
      "ÂłS": 6475,
      "ÂłÄĮe": 6476,
      "Ġvoda": 6477,
      "ĠoddÄĽlen": 6478,
      "ĠMont": 6479,
      "Ġrestau": 6480,
      "Ġeko": 6481,
      "ĠAnglie": 6482,
      "vÃ¡ch": 6483,
      "Ġcentrem": 6484,
      "ĠchtÄĽl": 6485,
      "ĠÄĮesko": 6486,
      "Ġzdroje": 6487,
      "Ġnena": 6488,
      "nÃ¡sob": 6489,
      "Ġlib": 6490,
      "Ġprocesu": 6491,
      "ĠtradiÄįnÃŃ": 6492,
      "sila": 6493,
      "Nic": 6494,
      "ĠdvakrÃ¡t": 6495,
      "Å¾bÄĽ": 6496,
      "Ġsestav": 6497,
      "ĠamerickÃ©ho": 6498,
      "ĠNovÃ½": 6499,
      "ĠplnÄĽ": 6500,
      "bek": 6501,
      "ĠbrnÄĽ": 6502,
      "ĠGro": 6503,
      "jeme": 6504,
      "ĠpouÅ¾ÃŃvat": 6505,
      "Ġvzduchu": 6506,
      "Ġosada": 6507,
      "ĠleÅ¾ÃŃcÃŃ": 6508,
      "ĠmÄĽsÃŃce": 6509,
      "Ġsymboli": 6510,
      "ĠoddÃŃ": 6511,
      "telnÃ¡": 6512,
      "Mod": 6513,
      "ĠCu": 6514,
      "Ġteprve": 6515,
      "Ġvedla": 6516,
      "ĠvÃ½Å¡ky": 6517,
      "ĠBud": 6518,
      "ĠPala": 6519,
      "ĠpÅĻestav": 6520,
      "ĠChor": 6521,
      "ĠkariÃ©ru": 6522,
      "gar": 6523,
      "Ġpozor": 6524,
      "ĠturnÃ©": 6525,
      "nala": 6526,
      "stalo": 6527,
      "ĠMax": 6528,
      "ĠVilÃ©m": 6529,
      "jekt": 6530,
      "hodou": 6531,
      "Ved": 6532,
      "ĠpÅĻedÃ¡": 6533,
      "bsolventi": 6534,
      "hon": 6535,
      "ĠFotbalistÃ©": 6536,
      "Ġperi": 6537,
      "veden": 6538,
      "NÄĽme": 6539,
      "asa": 6540,
      "ĠzveÅĻej": 6541,
      "ĠsnÄĽmov": 6542,
      "Ġhum": 6543,
      "ĠFoto": 6544,
      "ĠprobÄĽh": 6545,
      "zely": 6546,
      "Ġtypy": 6547,
      "ĠÄĮeskÃ©ho": 6548,
      "ĠNov": 6549,
      "gre": 6550,
      "ĠSil": 6551,
      "ĠkancelÃ¡": 6552,
      "ĠzÃ¡kaz": 6553,
      "Ġrychlosti": 6554,
      "Vyu": 6555,
      "ĠdÃ¡lnice": 6556,
      "Ġpaci": 6557,
      "Ġsmrt": 6558,
      "Ġregu": 6559,
      "ĠvÄĽz": 6560,
      "ejt": 6561,
      "ĠbritskÃ©": 6562,
      "ĠHou": 6563,
      "ĠukonÄįenÃŃ": 6564,
      "onec": 6565,
      "Å¡ly": 6566,
      "dili": 6567,
      "zovÃ¡n": 6568,
      "Âłdo": 6569,
      "ĠjaÅĻe": 6570,
      "ĠpravidelnÄĽ": 6571,
      "ĠDom": 6572,
      "ĠMÄĽsto": 6573,
      "zenÃ¡": 6574,
      "ĠÃļstav": 6575,
      "Ġpoch": 6576,
      "ult": 6577,
      "kor": 6578,
      "Ġosady": 6579,
      "Ġbody": 6580,
      "lavnÃŃm": 6581,
      "mÃ¡n": 6582,
      "Ġznak": 6583,
      "Ġjesky": 6584,
      "Ġmotory": 6585,
      "ĠzpracovÃ¡nÃŃ": 6586,
      "Ġdispozici": 6587,
      "ĠdneÅ¡nÃŃho": 6588,
      "Ġsen": 6589,
      "liÅ¡tÄĽ": 6590,
      "ĠalespoÅĪ": 6591,
      "ologii": 6592,
      "Ġlin": 6593,
      "Ġstudium": 6594,
      "Ġcharakter": 6595,
      "Ġskladby": 6596,
      "Vznik": 6597,
      "gres": 6598,
      "ĠslÃ¡": 6599,
      "Å¾to": 6600,
      "ĠÄįeskoslovenskÃ½": 6601,
      "Ġevangeli": 6602,
      "sili": 6603,
      "dÅ¯leÅ¾it": 6604,
      "Ġaj": 6605,
      "ÂłtÃ©": 6606,
      "ĠpÅĻedstavi": 6607,
      "ĠpapÃŃ": 6608,
      "vanÃ½ch": 6609,
      "ÂłvÃ½": 6610,
      "ĠmaÄıar": 6611,
      "sport": 6612,
      "ĠprovÃ¡": 6613,
      "cii": 6614,
      "ĠmÄĽsty": 6615,
      "ĠvlÃ¡du": 6616,
      "ĠvychÃ¡ze": 6617,
      "sh": 6618,
      "ĠLen": 6619,
      "Ġvztahu": 6620,
      "ĠIng": 6621,
      "ĠzvlÃ¡Å¡tÄĽ": 6622,
      "ĠklÃ¡": 6623,
      "ĠprospÄĽ": 6624,
      "ovce": 6625,
      "ĠpodÃŃl": 6626,
      "Ġkruh": 6627,
      "ĠmoÅ¾no": 6628,
      "ĠzabÃ½": 6629,
      "Ġsoupe": 6630,
      "opi": 6631,
      "tici": 6632,
      "zalo": 6633,
      "onem": 6634,
      "ĠKlad": 6635,
      "Obyvatelstvo": 6636,
      "Ġnelze": 6637,
      "ĠznÃ¡mo": 6638,
      "ĠpÅ¯vodnÃŃho": 6639,
      "ĠvytvoÅĻenÃŃ": 6640,
      "ĠsloÅ¾it": 6641,
      "Ġobsadil": 6642,
      "if": 6643,
      "Ã¡ni": 6644,
      "Ġuprav": 6645,
      "phi": 6646,
      "kaÄįnÃŃ": 6647,
      "ĠKun": 6648,
      "IN": 6649,
      "ĠnÃ¡sil": 6650,
      "ĠpÅĻitom": 6651,
      "ĠVladimÃŃr": 6652,
      "zt": 6653,
      "ĠÅ¾Ã¡n": 6654,
      "adÃŃ": 6655,
      "ĠSpe": 6656,
      "ĠuvnitÅĻ": 6657,
      "ĠreÅ¾imu": 6658,
      "tologie": 6659,
      "ĠBre": 6660,
      "ĠtÄĽles": 6661,
      "ĠGeorge": 6662,
      "Ġdopad": 6663,
      "ĠÃºseku": 6664,
      "chyb": 6665,
      "ĠDani": 6666,
      "Ġkonstrukce": 6667,
      "ĠhlÃŃ": 6668,
      "ĠmÃŃstnÃŃch": 6669,
      "ĠvrchovinÄĽ": 6670,
      "mÄĽrnÄĽ": 6671,
      "ss": 6672,
      "Ġostrovy": 6673,
      "Ġcena": 6674,
      "ĠFrank": 6675,
      "Ġdramati": 6676,
      "ĠprofesionÃ¡lnÃŃ": 6677,
      "att": 6678,
      "ĠdÄĽjin": 6679,
      "ĠinformacÃŃ": 6680,
      "ĠonemocnÄĽnÃŃ": 6681,
      "ĠKom": 6682,
      "Tu": 6683,
      "Âłt": 6684,
      "ĠlesnÃŃ": 6685,
      "Ġdvor": 6686,
      "tost": 6687,
      "ĠMezi": 6688,
      "Ar": 6689,
      "MS": 6690,
      "...": 6691,
      "Ġsjedno": 6692,
      "ĠÅ¡ampi": 6693,
      "zin": 6694,
      "meno": 6695,
      "tacÃŃ": 6696,
      "mena": 6697,
      "napÅĻÃŃklad": 6698,
      "cus": 6699,
      "ire": 6700,
      "Ġmoleku": 6701,
      "ĠÅ¾idovskÃ©": 6702,
      "adÄĽ": 6703,
      "ĠzvÃŃÅĻat": 6704,
      "ĠlepÅ¡ÃŃ": 6705,
      "AÅ¾": 6706,
      "ille": 6707,
      "tÃ¡n": 6708,
      "ĠAmerickÃ©": 6709,
      "nomi": 6710,
      "Âłna": 6711,
      "ĠÅĻÃŃkÃ¡": 6712,
      "znÃ¡nÃŃ": 6713,
      "zkou": 6714,
      "rovÃ©ho": 6715,
      "Ã¼n": 6716,
      "dii": 6717,
      "ĠformÄĽ": 6718,
      "ĠpÅĻednÃ¡": 6719,
      "Ġnega": 6720,
      "ĠChrÃ¡nÄĽnÃ¡": 6721,
      "ĠobyvatelÃ©": 6722,
      "way": 6723,
      "Ġjednalo": 6724,
      "Mar": 6725,
      "ĠvyskytujÃŃ": 6726,
      "Poli": 6727,
      "cal": 6728,
      "Ġsexu": 6729,
      "rovod": 6730,
      "Osob": 6731,
      "ĠpÅĻidÃ¡": 6732,
      "niku": 6733,
      "ĠvyÅ¡lo": 6734,
      "jov": 6735,
      "Ġmob": 6736,
      "Ġpsych": 6737,
      "Ġpohla": 6738,
      "ĠBos": 6739,
      "ĠvÃ½znamu": 6740,
      "ĠsoustÅĻe": 6741,
      "entnÃŃ": 6742,
      "ĠjinÃ©ho": 6743,
      "Ġdoz": 6744,
      "cep": 6745,
      "ĠJiÅĻÃŃho": 6746,
      "mani": 6747,
      "Ġtrhu": 6748,
      "ev": 6749,
      "ĠpozÅ¯": 6750,
      "Ġnovo": 6751,
      "Ġhydro": 6752,
      "Nakonec": 6753,
      "ĠBoÅ¾ÃŃ": 6754,
      "ĠhrÃ¡t": 6755,
      "Ġ?": 6756,
      "ĠpenÄĽ": 6757,
      "ĠSvat": 6758,
      "Ġhusit": 6759,
      "ÂłL": 6760,
      "Ġzes": 6761,
      "ĠLos": 6762,
      "ĠÅ¾iv": 6763,
      "ĠmanÅ¾elka": 6764,
      "ĠzpÄĽva": 6765,
      "Ġschopnost": 6766,
      "ĠLadis": 6767,
      "ĠpÅĻemÄĽ": 6768,
      "ultu": 6769,
      "ĠÄįase": 6770,
      "ĠVI": 6771,
      "Ġnoci": 6772,
      "Ġdomov": 6773,
      "staly": 6774,
      "Ġstudiu": 6775,
      "bskÃ©": 6776,
      "ĠBor": 6777,
      "ZÃ¡roveÅĪ": 6778,
      "ĠnÄĽkolikrÃ¡t": 6779,
      "tÃŃn": 6780,
      "Ġcy": 6781,
      "ĠpÅĻÃŃstro": 6782,
      "toku": 6783,
      "Ġvydala": 6784,
      "Ġobjeven": 6785,
      "ĠpoÅĻÃ¡d": 6786,
      "Ġarcheologi": 6787,
      "Ġtaj": 6788,
      "Tr": 6789,
      "leslav": 6790,
      "Ġsprav": 6791,
      "ĠÃºstavu": 6792,
      "ĠnevÄĽ": 6793,
      "ĠÅ¾ivotnÃŃ": 6794,
      "ĠvyÅ¡la": 6795,
      "Cha": 6796,
      "ĠjazykÅ¯": 6797,
      "ĠLondÃ½nÄĽ": 6798,
      "ĠJugoslÃ¡": 6799,
      "Å¾enÃ½ch": 6800,
      "ĠpatÅĻila": 6801,
      "mana": 6802,
      "abÃ¡": 6803,
      "ĠÅĻa": 6804,
      "Ġinternet": 6805,
      "Ġpozice": 6806,
      "ĠMS": 6807,
      "gem": 6808,
      "Ġsest": 6809,
      "ĠpodobnÃ©": 6810,
      "ĠklÃŃÄį": 6811,
      "Biografie": 6812,
      "ĠâĢĶ": 6813,
      "ĠÄįasopisu": 6814,
      "ĠPÃŃ": 6815,
      "hen": 6816,
      "chovÃ¡": 6817,
      "ĠGal": 6818,
      "ĠnepÅĻÃ¡tel": 6819,
      "ĠrodinÄĽ": 6820,
      "Ðº": 6821,
      "Ġoper": 6822,
      "ĠzÃ¡pasy": 6823,
      "mentÅ¯": 6824,
      "matu": 6825,
      "dÅ¯leÅ¾itÄĽjÅ¡ÃŃ": 6826,
      "itz": 6827,
      "mÃ©no": 6828,
      "ĠEdu": 6829,
      "Ġjazyky": 6830,
      "ĠTran": 6831,
      "stvÃŃm": 6832,
      "ĠtÃ¡bor": 6833,
      "tla": 6834,
      "ĠCÃŃ": 6835,
      "ĠLip": 6836,
      "ĠsoutÄĽÅ¾": 6837,
      "ĠÅĻÃŃÅ¡i": 6838,
      "ĠvlÃ¡dÄĽ": 6839,
      "Ġsti": 6840,
      "ĠlidovÃ©": 6841,
      "NejvÄĽtÅ¡ÃŃ": 6842,
      "telnÄĽ": 6843,
      "ĠnovÃ½m": 6844,
      "VÅ¡echny": 6845,
      "ĠdÃ©lce": 6846,
      "ĠBan": 6847,
      "ĠkatedrÃ¡": 6848,
      "vech": 6849,
      "lini": 6850,
      "ĠurÄįitÃ©": 6851,
      "kÅ¯v": 6852,
      "pÅĻi": 6853,
      "Ġspl": 6854,
      "asÃ¡": 6855,
      "Ġkopce": 6856,
      "Å¡kol": 6857,
      "Ġvybra": 6858,
      "ledna": 6859,
      "ĠpokraÄįoval": 6860,
      "jan": 6861,
      "wor": 6862,
      "Ġtelevize": 6863,
      "dost": 6864,
      "Ġinva": 6865,
      "Ġpolitiky": 6866,
      "rec": 6867,
      "ĠPovodÃŃ": 6868,
      "ÅĪujÃŃcÃŃ": 6869,
      "ĠpovÃŃd": 6870,
      "Rod": 6871,
      "Ġmana": 6872,
      "dku": 6873,
      "Å¾eno": 6874,
      "lenÃ©": 6875,
      "inovÃ©": 6876,
      "kÃ¡ÅĻ": 6877,
      "Ġhloub": 6878,
      "ll": 6879,
      "nali": 6880,
      "cyklope": 6881,
      "DÄĽ": 6882,
      "ĠnapÄĽtÃŃ": 6883,
      "ĠSp": 6884,
      "zech": 6885,
      "sion": 6886,
      "ĠKam": 6887,
      "Ġbratra": 6888,
      "ĠareÃ¡lu": 6889,
      "Ġkup": 6890,
      "ĠsoutÄĽÅ¾i": 6891,
      "ĠDub": 6892,
      "mrt": 6893,
      "He": 6894,
      "dubna": 6895,
      "Ġspi": 6896,
      "Ġsoftwa": 6897,
      "à¤": 6898,
      "ĠkariÃ©ry": 6899,
      "ĠIsla": 6900,
      "znÃ¡mky": 6901,
      "Ġvolby": 6902,
      "ĠnavÅ¡tÄĽv": 6903,
      "NicmÃ©nÄĽ": 6904,
      "Å¾nou": 6905,
      "ĠnatÃ¡": 6906,
      "ĠdÃ©lky": 6907,
      "ĠslouÄįen": 6908,
      "ĠvÃ½robÄĽ": 6909,
      "ĠPortugal": 6910,
      "Ã¡nskÃ©ho": 6911,
      "ĠdÃŃle": 6912,
      "ĠLin": 6913,
      "ĠkalendÃ¡": 6914,
      "old": 6915,
      "ĠStÃ¡tnÃŃ": 6916,
      "ĠPolsku": 6917,
      "NÃ¡slednÄĽ": 6918,
      "ĠangaÅ¾": 6919,
      "Man": 6920,
      "Âłn": 6921,
      "ĠvyuÄį": 6922,
      "ĪĴ": 6923,
      "ĠdÄĽlÃŃ": 6924,
      "ĠsevernÃŃm": 6925,
      "ĠzapoÄį": 6926,
      "Ġroman": 6927,
      "Ã³nÅ¯": 6928,
      "rot": 6929,
      "ĠKÄį": 6930,
      "slavi": 6931,
      "ĠKor": 6932,
      "ĠTru": 6933,
      "ĠvÄĽzenÃŃ": 6934,
      "ĠromÃ¡nu": 6935,
      "Âłnej": 6936,
      "ĠoÄįekÃ¡": 6937,
      "Ġmagne": 6938,
      "ĠspoÄįÃŃ": 6939,
      "ĠvyprÃ¡": 6940,
      "Ġpoe": 6941,
      "ruhÃ©": 6942,
      "OP": 6943,
      "ĠÃºlo": 6944,
      "ĠpÅĻedseda": 6945,
      "bÅĻezna": 6946,
      "ĠzpÃŃ": 6947,
      "Ġcvi": 6948,
      "ĠvÃ½voje": 6949,
      "ĠvÅ¯z": 6950,
      "Vla": 6951,
      "Å½i": 6952,
      "ĠsbÄĽ": 6953,
      "Ġkapitu": 6954,
      "ĠAg": 6955,
      "ĠcÃŃrkev": 6956,
      "ĠEm": 6957,
      "ĠpolitickÃ½ch": 6958,
      "ĠfÃ¡ze": 6959,
      "Ġpracovat": 6960,
      "linu": 6961,
      "Ġalbu": 6962,
      "Ġslune": 6963,
      "ĠpÅĻiz": 6964,
      "ass": 6965,
      "vec": 6966,
      "ĠnÃ¡zor": 6967,
      "Ġsboru": 6968,
      "phy": 6969,
      "rnÃ©": 6970,
      "Å¡tejna": 6971,
      "tim": 6972,
      "ĠpatrnÄĽ": 6973,
      "ĠportrÃ©": 6974,
      "tuje": 6975,
      "Ġpodrob": 6976,
      "ĠstÅĻedu": 6977,
      "Ġobrany": 6978,
      "ĠvelkÃ½m": 6979,
      "kazu": 6980,
      "ĠAbsolventi": 6981,
      "ĠÄįtvrti": 6982,
      "hÃ½ch": 6983,
      "ĠvÄĽÅ¾e": 6984,
      "Ġstyl": 6985,
      "ĠHit": 6986,
      "ĠpÅĻevzal": 6987,
      "ĠpodÃŃlel": 6988,
      "Ġrozhlas": 6989,
      "ĠcentrÃ¡lnÃŃ": 6990,
      "vence": 6991,
      "Ġtero": 6992,
      "ĠreÅ¾isÃ©r": 6993,
      "ĠjiÅ¾nÃŃm": 6994,
      "ĠTomÃ¡Å¡": 6995,
      "nÃ¡m": 6996,
      "ĠMen": 6997,
      "Ġbudov": 6998,
      "tions": 6999,
      "ĠposlednÃŃm": 7000,
      "Å¾ÃŃch": 7001,
      "sia": 7002,
      "ĠkonÄįÃŃ": 7003,
      "vodnÃŃ": 7004,
      "ĠHudebnÃŃ": 7005,
      "tah": 7006,
      "Ġskupinou": 7007,
      "datele": 7008,
      "ĠreÅ¾im": 7009,
      "ĠPrÅ¯": 7010,
      "Ġdosava": 7011,
      "ĠruskÃ©": 7012,
      "hoÅĻÃŃ": 7013,
      "ĠAfriky": 7014,
      "ĠKonstant": 7015,
      "ĠvÅ¡eobec": 7016,
      "gol": 7017,
      "Ġochranu": 7018,
      "Ġovli": 7019,
      "Å¾ily": 7020,
      "tik": 7021,
      "Ġliber": 7022,
      "ĠHradec": 7023,
      "ĠmÄĽnÃŃ": 7024,
      "ĠpÅĻestavÄĽ": 7025,
      "ĠrozÅ¡i": 7026,
      "ĠÄįast": 7027,
      "ÅĪÅ¯": 7028,
      "ĠbÃ½vajÃŃ": 7029,
      "ĠpopulÃ¡rnÃŃ": 7030,
      "ĠtÃ©ma": 7031,
      "BC": 7032,
      "nis": 7033,
      "set": 7034,
      "Stu": 7035,
      "Ho": 7036,
      "Ġpoko": 7037,
      "Ã³na": 7038,
      "pila": 7039,
      "Ġvyjad": 7040,
      "ĠFerdinand": 7041,
      "Å¡ice": 7042,
      "Ġstavbu": 7043,
      "ĠÅĻece": 7044,
      "Ġkomu": 7045,
      "ĠmimoÅĻÃ¡d": 7046,
      "ĠstudiÃŃ": 7047,
      "ĠÄĮeskoslovenskÃ©": 7048,
      "lome": 7049,
      "Ġkab": 7050,
      "Ġkot": 7051,
      "ĠzbranÃŃ": 7052,
      "ĠvnÄĽjÅ¡ÃŃ": 7053,
      "mis": 7054,
      "ZemÅĻel": 7055,
      "DÅ¯": 7056,
      "mund": 7057,
      "ĠJeÅ¾ÃŃ": 7058,
      "Ġpoji": 7059,
      "ĠlidskÃ©": 7060,
      "Å¾eny": 7061,
      "ĠnÄĽkteÅĻÃŃ": 7062,
      "ĠvytvÃ¡ÅĻe": 7063,
      "ĠpÅĻeklad": 7064,
      "Ġlize": 7065,
      "ĠÅ¡kod": 7066,
      "ĠÄįerno": 7067,
      "ĠskonÄįenÃŃ": 7068,
      "Ġzakladatel": 7069,
      "mentÃ¡lnÃŃ": 7070,
      "ĠMasary": 7071,
      "produ": 7072,
      "ĠdelÅ¡ÃŃ": 7073,
      "ĠzdrojÅ¯": 7074,
      "Ġrozho": 7075,
      "Ġvylou": 7076,
      "Ġobjevila": 7077,
      "ĠpronÃ¡": 7078,
      "Ġteleviz": 7079,
      "ĠzkrÃ¡": 7080,
      "Ġkomp": 7081,
      "ĠnepÅĻi": 7082,
      "ĠKaro": 7083,
      "vÃ¡na": 7084,
      "stli": 7085,
      "Ġlinie": 7086,
      "Ġkontin": 7087,
      "vinÄĽ": 7088,
      "Ġpolitici": 7089,
      "Å¡enÃ½": 7090,
      "stvu": 7091,
      "SO": 7092,
      "ue": 7093,
      "Ġautobu": 7094,
      "Ġkvalifi": 7095,
      "ĠÃºtok": 7096,
      "lot": 7097,
      "ĠmateriÃ¡lu": 7098,
      "vce": 7099,
      "znamy": 7100,
      "ĠĠĠĠĠĠĠĠĠĠ": 7101,
      "ĠPaul": 7102,
      "dÄĽli": 7103,
      "solu": 7104,
      "ĠvesmÃŃru": 7105,
      "ĠSpoleÄį": 7106,
      "Ġbudouc": 7107,
      "ide": 7108,
      "Ġopustil": 7109,
      "Ġdoho": 7110,
      "ĠTen": 7111,
      "cembur": 7112,
      "ip": 7113,
      "ĠÅłkod": 7114,
      "ĠzÃ¡kladnÃŃch": 7115,
      "kÅĻÃŃ": 7116,
      "ĠHistori": 7117,
      "Ġidentifi": 7118,
      "since": 7119,
      "Ġhrom": 7120,
      "Ġkategorii": 7121,
      "Ġmetro": 7122,
      "Ã¡lem": 7123,
      "ĠrozdÄĽlenÃŃ": 7124,
      "Ġzdo": 7125,
      "Ġrokem": 7126,
      "Å¾ilo": 7127,
      "ĠnemÅ¯Å¾e": 7128,
      "Ġustanov": 7129,
      "nora": 7130,
      "ĠbÃ½valÃ©": 7131,
      "ĠrelativnÄĽ": 7132,
      "zou": 7133,
      "Jose": 7134,
      "ĠzadnÃŃ": 7135,
      "Ġtisk": 7136,
      "Äįice": 7137,
      "Ġkanad": 7138,
      "ĠTh": 7139,
      "Ġpoten": 7140,
      "Ġdopravu": 7141,
      "Ġneexist": 7142,
      "ĠnÃ¡klad": 7143,
      "Ġteore": 7144,
      "Ġsle": 7145,
      "Ġorient": 7146,
      "Ġnebezpe": 7147,
      "ĠBlu": 7148,
      "Ġoblou": 7149,
      "Ġtramvaj": 7150,
      "ĠBritÃ¡nii": 7151,
      "mÄĽnÃŃ": 7152,
      "zan": 7153,
      "ĠÃºdaje": 7154,
      "Ġvyme": 7155,
      "El": 7156,
      "ÂłÄįe": 7157,
      "Ġlogi": 7158,
      "leÅ¡": 7159,
      "Ġletoun": 7160,
      "Ġvypl": 7161,
      "pito": 7162,
      "ĠRuska": 7163,
      "Ġvlh": 7164,
      "obo": 7165,
      "Ġsynem": 7166,
      "ĠhÅĻbitovÄĽ": 7167,
      "Ġdobrovol": 7168,
      "ĠvstÅĻe": 7169,
      "oba": 7170,
      "Ġosla": 7171,
      "ĠNepo": 7172,
      "Ġodpo": 7173,
      "ĠoblÃ©": 7174,
      "ĠvÃ½chodnÄĽ": 7175,
      "Ġposlanec": 7176,
      "ĠnejmÃ©nÄĽ": 7177,
      "ÄįnÃ©ho": 7178,
      "Ġoboru": 7179,
      "JeÅ¡tÄĽ": 7180,
      "ÅĪa": 7181,
      "ÄįenÃ½": 7182,
      "ĠzastÃ¡val": 7183,
      "Ġ'": 7184,
      "ĠnezÃ¡vislost": 7185,
      "Ġkosmi": 7186,
      "ĠPolska": 7187,
      "TÅĻe": 7188,
      "ĠmÃŃrnÄĽ": 7189,
      "ĠmuÅ¾i": 7190,
      "Ġvenkov": 7191,
      "Ã³nu": 7192,
      "ĠÃºÄįelem": 7193,
      "ĠJean": 7194,
      "ĠzÅ¯stala": 7195,
      "ĠÃºtva": 7196,
      "wood": 7197,
      "Ã¡cti": 7198,
      "Ġletadla": 7199,
      "ĠmluvÃŃ": 7200,
      "ĠWashing": 7201,
      "ĠtÅĻetÃŃm": 7202,
      "ZatÃŃmco": 7203,
      "ĠtvÅ¯r": 7204,
      "FA": 7205,
      "ous": 7206,
      "Ġsama": 7207,
      "trval": 7208,
      "Ġodkud": 7209,
      "ĠItal": 7210,
      "Ġkoncer": 7211,
      "ĠzruÅ¡enÃŃ": 7212,
      "Ġjednotka": 7213,
      "pto": 7214,
      "LeÅ¾ÃŃ": 7215,
      "ĠÄĮerv": 7216,
      "Ġzobraz": 7217,
      "dae": 7218,
      "zali": 7219,
      "ĠOrli": 7220,
      "ĠnÃ¡stroje": 7221,
      "ĠrozmÄĽ": 7222,
      "Ġmed": 7223,
      "tosti": 7224,
      "parÃ¡": 7225,
      "Ã¡nskÃ½": 7226,
      "ĠMichael": 7227,
      "ĠpÅĻipomÃŃnÃ¡": 7228,
      "Ġfrek": 7229,
      "rpna": 7230,
      "Âłse": 7231,
      "Ġvedlo": 7232,
      "ĠSh": 7233,
      "ĠMÃ¡": 7234,
      "ĠdrÃ¡ha": 7235,
      "Ġlinka": 7236,
      "logovÃ©": 7237,
      "ĠmoÅ¾nÃ¡": 7238,
      "ĠNob": 7239,
      "Ġtradice": 7240,
      "ĠpÅĻijat": 7241,
      "KaÅ¾d": 7242,
      "Äįko": 7243,
      "Ġutr": 7244,
      "ĠislÃ¡": 7245,
      "Ġzbytek": 7246,
      "Ġkres": 7247,
      "ĠDie": 7248,
      "vÃ½mi": 7249,
      "ĠpamÄĽti": 7250,
      "ĠÄįesky": 7251,
      "Ġseznamu": 7252,
      "PÅ¯vodnÃŃ": 7253,
      "Ġexistence": 7254,
      "ĠneÃºspÄĽÅ¡": 7255,
      "Ġplochy": 7256,
      "mezÃŃ": 7257,
      "ĠhvÄĽzdy": 7258,
      "ovskÃ½": 7259,
      "jit": 7260,
      "ĠbÃ½valÃ©ho": 7261,
      "levi": 7262,
      "ĠuÄįenÃŃ": 7263,
      "Ġvznikly": 7264,
      "ĠstÃ¡vÃ¡": 7265,
      "hodnÃ©": 7266,
      "Å¡av": 7267,
      "Ġreprezentace": 7268,
      "ĠCity": 7269,
      "ĠvÃ½znamnÃ½ch": 7270,
      "ĠpÅĻipojen": 7271,
      "ĠKÅĻi": 7272,
      "ĠstromÅ¯": 7273,
      "hav": 7274,
      "Ġmeta": 7275,
      "PÅĻestoÅ¾e": 7276,
      "ĠstupnÄĽ": 7277,
      "Ġprosa": 7278,
      "ĠSpar": 7279,
      "Ġvysokou": 7280,
      "ĠzÃ¡padnÄĽ": 7281,
      "ĠobhÃ¡": 7282,
      "ĠZdenÄĽk": 7283,
      "Ġpodep": 7284,
      "rovy": 7285,
      "×ķ": 7286,
      "ĠCup": 7287,
      "Ġdivadle": 7288,
      "Ġchro": 7289,
      "Ġproveden": 7290,
      "Å¡nÃ©": 7291,
      "ĠVÃŃdeÅĪ": 7292,
      "ĠJihla": 7293,
      "ĠstrojÅ¯": 7294,
      "ĠhorÃ¡ch": 7295,
      "ĠFal": 7296,
      "Ã¼r": 7297,
      "ĠvÃ½roÄįÃŃ": 7298,
      "ĠAdam": 7299,
      "Ġinstru": 7300,
      "dium": 7301,
      "ĠsloÅ¾enÃŃ": 7302,
      "Ġson": 7303,
      "ĠfakultÄĽ": 7304,
      "Åĺe": 7305,
      "ĠÃºÄįa": 7306,
      "ÃŁ": 7307,
      "ĠÅĺÃ¡du": 7308,
      "Ġdosah": 7309,
      "ĠCy": 7310,
      "ĠPohÅĻ": 7311,
      "ĠOnd": 7312,
      "ĠjejÃŃch": 7313,
      "kajÃŃcÃŃ": 7314,
      "ovatele": 7315,
      "Ġmuzi": 7316,
      "ĠudÄĽlen": 7317,
      "ĠStÅĻednÃŃ": 7318,
      "Ġpartner": 7319,
      "Ġzu": 7320,
      "Ġdoprovod": 7321,
      "akla": 7322,
      "Ġpostava": 7323,
      "Ġarchite": 7324,
      "Ġpiv": 7325,
      "ĠkatastrÃ¡lnÃŃho": 7326,
      "ĠÄįtver": 7327,
      "onal": 7328,
      "ĠpÅĻedchÅ¯": 7329,
      "pp": 7330,
      "slÃŃ": 7331,
      "ĠzruÅ¡en": 7332,
      "knutÃŃ": 7333,
      "ĠAkademi": 7334,
      "ĠLho": 7335,
      "Ġzakon": 7336,
      "ĠInterna": 7337,
      "DalÅ¡ÃŃm": 7338,
      "ĠSk": 7339,
      "ĠÅĻÃŃdÃŃ": 7340,
      "Ġstrom": 7341,
      "lar": 7342,
      "Âłroz": 7343,
      "zar": 7344,
      "ĠptÃ¡kÅ¯": 7345,
      "ĠdnÅ¯": 7346,
      "ĠAna": 7347,
      "dom": 7348,
      "VÃ½voj": 7349,
      "plat": 7350,
      "ĠVelkÃ¡": 7351,
      "saÅĻ": 7352,
      "ĠTÅĻebÃŃ": 7353,
      "mel": 7354,
      "zovÃ¡na": 7355,
      "Ġstromy": 7356,
      "Ġkytari": 7357,
      "ĠBranky": 7358,
      "ĠzÃ¡pasÅ¯": 7359,
      "ric": 7360,
      "ĠÅĻek": 7361,
      "ĠFrid": 7362,
      "ĠÅ¾ivotÄĽ": 7363,
      "ĠÃºspÄĽÅ¡nÄĽ": 7364,
      "ĠPaÅĻÃŃÅ¾e": 7365,
      "Ġzdi": 7366,
      "tia": 7367,
      "ĠzabrÃ¡": 7368,
      "Ġvrtu": 7369,
      "stran": 7370,
      "ĠrozdÃŃ": 7371,
      "hry": 7372,
      "ĠMoravy": 7373,
      "ĠfunkcÃŃ": 7374,
      "ĠsÃŃdel": 7375,
      "ĠvysÃŃla": 7376,
      "Ã¡tor": 7377,
      "PÅ¯": 7378,
      "ĠzpÄĽv": 7379,
      "ĠdÄĽjiny": 7380,
      "Ġhokeji": 7381,
      "Ġhroz": 7382,
      "ĠzÃ¡slu": 7383,
      "ĠpÅĻÃŃrody": 7384,
      "rij": 7385,
      "ĠTech": 7386,
      "ĠStrÃ¡": 7387,
      "provÃ¡": 7388,
      "ĠAnna": 7389,
      "Ġcivili": 7390,
      "ĠzprÃ¡vy": 7391,
      "lka": 7392,
      "erem": 7393,
      "tskÃ©": 7394,
      "dÄĽla": 7395,
      "pravod": 7396,
      "VÃ½sled": 7397,
      "ĠfilmovÃ©": 7398,
      "lob": 7399,
      "Ġjednak": 7400,
      "ĠWest": 7401,
      "ĠzvÄĽt": 7402,
      "Ġprovincii": 7403,
      "Ġopu": 7404,
      "ĠzÃŃskali": 7405,
      "ĠexistujÃŃ": 7406,
      "Ġpomal": 7407,
      "ÂłC": 7408,
      "ĠEU": 7409,
      "ĠÅ¾ijÃŃcÃŃ": 7410,
      "bie": 7411,
      "Mimo": 7412,
      "ĠPohÅĻbenÃŃ": 7413,
      "Ġdistribu": 7414,
      "Ġpobo": 7415,
      "ĠJor": 7416,
      "ĠpohÃ¡ru": 7417,
      "Ġfakulty": 7418,
      "ĠodpovÃŃdÃ¡": 7419,
      "PÅĻes": 7420,
      "ĠPru": 7421,
      "ĠDvo": 7422,
      "ĠseznÃ¡": 7423,
      "ĠzÃ¡znam": 7424,
      "ĠrozliÅ¡": 7425,
      "Ġpedagog": 7426,
      "ĠprobÄĽhla": 7427,
      "enÃŃm": 7428,
      "Ġtextu": 7429,
      "ĠBed": 7430,
      "ÅĪovat": 7431,
      "dÅ¾": 7432,
      "Ġfos": 7433,
      "mÃŃsto": 7434,
      "nut": 7435,
      "bio": 7436,
      "Ġrenesan": 7437,
      "ĠhrÃ¡ÄįÅ¯": 7438,
      "reg": 7439,
      "etna": 7440,
      "ĠhnÃŃz": 7441,
      "Ġochran": 7442,
      "ĠdÃ©lka": 7443,
      "logy": 7444,
      "ĠzachrÃ¡": 7445,
      "ĠvÄĽci": 7446,
      "tj": 7447,
      "ĠzamÄĽÅĻ": 7448,
      "Ġvzpo": 7449,
      "ĠcÃŃrkevnÃŃ": 7450,
      "ovol": 7451,
      "Ġvozidla": 7452,
      "Ġturnaj": 7453,
      "KvÅ¯li": 7454,
      "letÃ½": 7455,
      "ĠvÃ½jime": 7456,
      "ĠskuteÄįnÄĽ": 7457,
      "Ġvodou": 7458,
      "Ġplav": 7459,
      "vanou": 7460,
      "ĠmalÃ½ch": 7461,
      "Ġsni": 7462,
      "Ġdomy": 7463,
      "Ġkoali": 7464,
      "Ġmagi": 7465,
      "Ġbibli": 7466,
      "Ġpalu": 7467,
      "leva": 7468,
      "tami": 7469,
      "ĠprvkÅ¯": 7470,
      "ĠPau": 7471,
      "ĠpalÃ¡c": 7472,
      "OV": 7473,
      "Âłves": 7474,
      "ĠnÃ¡rodÅ¯": 7475,
      "ĠChorvat": 7476,
      "ĠzdÄĽ": 7477,
      "ĠAnt": 7478,
      "Ġposto": 7479,
      "ĠjinÃ½": 7480,
      "ĠdomÄĽ": 7481,
      "Postup": 7482,
      "Ġture": 7483,
      "ĠÄįem": 7484,
      "ĠdÅ¯leÅ¾itÃ©": 7485,
      "ĠLÃ¡": 7486,
      "vidu": 7487,
      "ĠprokÃ¡": 7488,
      "ĠrozsÃ¡hlÃ©": 7489,
      "ĠsprÃ¡vnÃŃ": 7490,
      "ĠÃºroveÅĪ": 7491,
      "ĠpÅĻijal": 7492,
      "ĠokamÅ¾it": 7493,
      "ĠPÅĻÃŃrodnÃŃ": 7494,
      "asto": 7495,
      "teÄįnÃŃ": 7496,
      "ĠzÃ¡padnÃŃm": 7497,
      "ĠvysokÃ¡": 7498,
      "Ġvyrov": 7499,
      "rovÃ¡nÃŃ": 7500,
      "Bi": 7501,
      "Ni": 7502,
      "pec": 7503,
      "stali": 7504,
      "Ġmohly": 7505,
      "ĠvelkÃ©ho": 7506,
      "ĠÄįlÃ¡nek": 7507,
      "lnÃŃkÅ¯": 7508,
      "Ã©nu": 7509,
      "ĠDis": 7510,
      "ĠfrancouzskÃ©ho": 7511,
      "Ð»": 7512,
      "ĠFilo": 7513,
      "Ġautomati": 7514,
      "ĠevropskÃ©": 7515,
      "ĠÅ¡lo": 7516,
      "Ġinteg": 7517,
      "Ba": 7518,
      "rÅ¯m": 7519,
      "Ġmedaile": 7520,
      "ĠuprostÅĻed": 7521,
      "ĠsÃ©rii": 7522,
      "ĠMich": 7523,
      "ĠmoÅĻi": 7524,
      "Mez": 7525,
      "Ġmani": 7526,
      "Ġdokto": 7527,
      "ĠzasÃ¡": 7528,
      "Ġdcery": 7529,
      "Ġabsolvoval": 7530,
      "tero": 7531,
      "ĠÅĻÃŃmskokatoli": 7532,
      "Ġdivize": 7533,
      "Ġmohlo": 7534,
      "sig": 7535,
      "ĠPrÃ¡": 7536,
      "ĠDÃ¡n": 7537,
      "stral": 7538,
      "ĠAnti": 7539,
      "use": 7540,
      "lom": 7541,
      "poÄįet": 7542,
      "riz": 7543,
      "ĠmÃŃru": 7544,
      "ĠhistorickÃ½ch": 7545,
      "ĠvytvoÅĻit": 7546,
      "ns": 7547,
      "Ġbub": 7548,
      "Ġ%)": 7549,
      "ĠvÅ¡": 7550,
      "ĠvÃ½cvi": 7551,
      "Ġstudent": 7552,
      "dilo": 7553,
      "Ġnucen": 7554,
      "ĠÅ¡ach": 7555,
      "ĠosobnostÃŃ": 7556,
      "soci": 7557,
      "ÄįÃ¡tkem": 7558,
      "Ġpohybuje": 7559,
      "bil": 7560,
      "ĠvyÅĻa": 7561,
      "ĠKateÅĻ": 7562,
      "ĠnarozenÃŃ": 7563,
      "Äįily": 7564,
      "ĠpÅĻipad": 7565,
      "vateli": 7566,
      "fÃ¡": 7567,
      "ĠmanÅ¾elkou": 7568,
      "ĠPaÅĻÃŃÅ¾": 7569,
      "Ġbitvy": 7570,
      "Ġpseud": 7571,
      "ĠPop": 7572,
      "Ġreli": 7573,
      "kovanÃ©": 7574,
      "Ġnizozem": 7575,
      "Ġuvedl": 7576,
      "ĠjedinÃ½m": 7577,
      "Ġvojsko": 7578,
      "Ġfran": 7579,
      "Ġhrab": 7580,
      "Ġprezen": 7581,
      "ĠchrÃ¡m": 7582,
      "enÃ©ho": 7583,
      "ĠkterÃ½mi": 7584,
      "Ġprezidentem": 7585,
      "ĠÄįeskÃ©m": 7586,
      "Ġrozlohu": 7587,
      "mera": 7588,
      "ĠdoprovÃ¡": 7589,
      "Ġfon": 7590,
      "ĠznaÄįnÃ©": 7591,
      "Ġspekt": 7592,
      "ĠkrÃ¡tkÃ©": 7593,
      "sexu": 7594,
      "ĠÅĺÃŃmÄĽ": 7595,
      "ZÃ¡kladnÃŃ": 7596,
      "con": 7597,
      "ĠNHL": 7598,
      "Ġobchodu": 7599,
      "ĠJack": 7600,
      "ĠAnge": 7601,
      "Ġzavra": 7602,
      "ĠpÅĻÃŃleÅ¾itosti": 7603,
      "ĠpoÄįe": 7604,
      "ĠKal": 7605,
      "Ġuniver": 7606,
      "ĠdÄĽlo": 7607,
      "Kni": 7608,
      "tÄĽch": 7609,
      "ĠpotÅĻeby": 7610,
      "asu": 7611,
      "rÅ¯z": 7612,
      "ĠtÅĻ": 7613,
      "ĠÅ¡ir": 7614,
      "ĠDÃŃ": 7615,
      "ĠmaximÃ¡lnÃŃ": 7616,
      "ĠUN": 7617,
      "ĠKamen": 7618,
      "ĠsnaÅ¾il": 7619,
      "Ġvnit": 7620,
      "ĠAf": 7621,
      "Ġmetody": 7622,
      "Ġspole": 7623,
      "Ġmasi": 7624,
      "ĠAlo": 7625,
      "Ġedi": 7626,
      "itt": 7627,
      "Ġtomuto": 7628,
      "ĠKalifor": 7629,
      "Ġhypo": 7630,
      "Ġalterna": 7631,
      "ĠsamostatnÃ©": 7632,
      "Å¡in": 7633,
      "ĠovlivnÄĽ": 7634,
      "ĠdlouhÃ½": 7635,
      "Ġskr": 7636,
      "evrop": 7637,
      "ĠobÄįas": 7638,
      "ĠAsii": 7639,
      "Ġtechnologie": 7640,
      "ĠkaÅ¾doro": 7641,
      "ĠbuÅĪky": 7642,
      "ĠdoloÅ¾en": 7643,
      "ĠvidÄĽt": 7644,
      "ĠmateriÃ¡l": 7645,
      "ĠsvÄĽtla": 7646,
      "Ġben": 7647,
      "atÃ½": 7648,
      "sÃ¡na": 7649,
      "chÃ¡zelo": 7650,
      "Ġnahradil": 7651,
      "ĠTere": 7652,
      "lovat": 7653,
      "ĠvÄĽtÅ¡iny": 7654,
      "stka": 7655,
      "Star": 7656,
      "Ġpohled": 7657,
      "stice": 7658,
      "mÃ¡nÃŃ": 7659,
      "cip": 7660,
      "Ġobklo": 7661,
      "Ġreakce": 7662,
      "ĠSÃ¡zav": 7663,
      "Ġkapli": 7664,
      "Ġml": 7665,
      "Ġmotoru": 7666,
      "AS": 7667,
      "Ġdol": 7668,
      "ĠmoÅ¾nosti": 7669,
      "ĠMinister": 7670,
      "zÃ¡n": 7671,
      "ĠodmÃŃtl": 7672,
      "ĠmÄĽste": 7673,
      "ĠdiecÃ©": 7674,
      "ĠstejnÃ©m": 7675,
      "Ãºhel": 7676,
      "statnÃŃ": 7677,
      "Ġspra": 7678,
      "ÂłPra": 7679,
      "ObÄĽ": 7680,
      "ĠPy": 7681,
      "Ġvydavatel": 7682,
      "ĠmandÃ¡": 7683,
      "ĠÅĺeky": 7684,
      "Ġy": 7685,
      "ĠTom": 7686,
      "ĠdvÅ¯r": 7687,
      "Ġsemi": 7688,
      "ĠAnglii": 7689,
      "Ġran": 7690,
      "Ġhomo": 7691,
      "ĠzemÅĻe": 7692,
      "Ġga": 7693,
      "ĠvlastnÃŃm": 7694,
      "ĠchvÃŃli": 7695,
      "ĠSkot": 7696,
      "ĠnajÃŃt": 7697,
      "Ġprodukce": 7698,
      "ĠOlomouc": 7699,
      "-s": 7700,
      "Ġsmy": 7701,
      "ĠpÅĻehra": 7702,
      "ĠOn": 7703,
      "Ã³za": 7704,
      "Ġarg": 7705,
      "ĠtÅĻiceti": 7706,
      "lian": 7707,
      "ĠregionÃ¡lnÃŃ": 7708,
      "ĠFilip": 7709,
      "ĠvÃ¡lek": 7710,
      "ĠMuze": 7711,
      "ĠObec": 7712,
      "ĠÄįeskoslovenskÃ©ho": 7713,
      "Ġnebu": 7714,
      "ĠZani": 7715,
      "ĠpÅĻezdÃŃ": 7716,
      "ĠduÅ¡e": 7717,
      "Celkem": 7718,
      "ovacÃŃch": 7719,
      "hard": 7720,
      "ril": 7721,
      "ĠorganizacÃŃ": 7722,
      "ĠHrÃ¡": 7723,
      "Ġstudie": 7724,
      "-U": 7725,
      "ÄįinÄĽ": 7726,
      "ath": 7727,
      "ĠBoleslav": 7728,
      "Ġslavnost": 7729,
      "ĠÃºdajÅ¯": 7730,
      "Ġnarozen": 7731,
      "Ġzvy": 7732,
      "ĠfotbalovÃ½": 7733,
      "ovka": 7734,
      "Ġkomer": 7735,
      "Ġsoukrom": 7736,
      "Ex": 7737,
      "nÄĽnÃŃm": 7738,
      "ĠBez": 7739,
      "auto": 7740,
      "Å¾nÃ½": 7741,
      "Âłne": 7742,
      "Å¾itel": 7743,
      "ÅĪoval": 7744,
      "Ġpoby": 7745,
      "ĠpÅĻevod": 7746,
      "ĠtÅĻÃŃda": 7747,
      "ĠpodÃŃle": 7748,
      "Ġpotla": 7749,
      "ĠzaloÅ¾enÃ¡": 7750,
      "Ġneut": 7751,
      "ĠrozÅ¡ÃŃÅĻen": 7752,
      "vÃ©ho": 7753,
      "alÃ©": 7754,
      "Âłjeho": 7755,
      "Ġzakou": 7756,
      "ĠzÃ¡me": 7757,
      "ĠnÃ¡moÅĻnÃŃ": 7758,
      "ĠzdravotnÃŃ": 7759,
      "ĠbÄĽÅ¾nÄĽ": 7760,
      "ĠKing": 7761,
      "ÄįÃ¡stÃŃ": 7762,
      "ĠpodmÃŃnek": 7763,
      "AF": 7764,
      "Äįeb": 7765,
      "Ġsel": 7766,
      "ĠHC": 7767,
      "ĠvyhledÃ¡": 7768,
      "ĠvystÅĻÃŃ": 7769,
      "Lu": 7770,
      "ĠDar": 7771,
      "ĠprÅ¯mys": 7772,
      "ĠzÃºÄįastnil": 7773,
      "Ġnim": 7774,
      "Ġkostele": 7775,
      "stky": 7776,
      "tily": 7777,
      "Ġhlavy": 7778,
      "Ġtrh": 7779,
      "Ġruko": 7780,
      "ĠvÃ½jimkou": 7781,
      "ĠprohlÃ¡sil": 7782,
      "OR": 7783,
      "xid": 7784,
      "sson": 7785,
      "ĠvÃ½zkumu": 7786,
      "Ġdlouhodob": 7787,
      "ĠpÃŃsni": 7788,
      "ĠpokraÄįuje": 7789,
      "Ġhmy": 7790,
      "lÃŃch": 7791,
      "Ġcivil": 7792,
      "dh": 7793,
      "Ġdivo": 7794,
      "Âłvy": 7795,
      "Ġzaveden": 7796,
      "ĠlÃ¡tek": 7797,
      "Ġvze": 7798,
      "ĠEli": 7799,
      "ĠPavla": 7800,
      "ĠnemÄĽl": 7801,
      "ĠtermÃŃn": 7802,
      "ĠbÃ¡snÃŃk": 7803,
      "Ġstabili": 7804,
      "ĠBulhar": 7805,
      "rovanÃ©": 7806,
      "Ġvelikost": 7807,
      "skal": 7808,
      "nder": 7809,
      "ĠRakousku": 7810,
      "ĠHistorie": 7811,
      "vero": 7812,
      "Ġkato": 7813,
      "Ġtrolej": 7814,
      "sala": 7815,
      "sitelÃ©": 7816,
      "Ġjednotli": 7817,
      "ĠdoÄįas": 7818,
      "Ġtera": 7819,
      "Ġdlu": 7820,
      "pravodaj": 7821,
      "gene": 7822,
      "Ġsnadno": 7823,
      "gel": 7824,
      "vÃ¡r": 7825,
      "ĠotevÅĻena": 7826,
      "ĠTure": 7827,
      "Ġdovo": 7828,
      "ĠjinÃ½mi": 7829,
      "Ġformy": 7830,
      "ĠjejÃŃmÅ¾": 7831,
      "Ġpodd": 7832,
      "ĠmuÅ¾e": 7833,
      "Ġpojem": 7834,
      "roni": 7835,
      "Ġflo": 7836,
      "Ġministra": 7837,
      "ĠBeneÅ¡ov": 7838,
      "uti": 7839,
      "rim": 7840,
      "Ġpokry": 7841,
      "IV": 7842,
      "ĠKnese": 7843,
      "Ã¡lovÃ©": 7844,
      "Histori": 7845,
      "ĠOstrava": 7846,
      "Ġpokro": 7847,
      "Ġnomin": 7848,
      "ĠzÃ¡ÅĻenÃŃ": 7849,
      "Ġvozu": 7850,
      "poleon": 7851,
      "ĠRakousko": 7852,
      "zonÄĽ": 7853,
      "ĠNachal": 7854,
      "Ġjez": 7855,
      "Ġhasi": 7856,
      "ĠprostÅĻedky": 7857,
      "Ġdro": 7858,
      "voÅĻÃŃ": 7859,
      "Ġozbrojen": 7860,
      "ĠoblÃŃben": 7861,
      "ĠÄ": 7862,
      "ĠCal": 7863,
      "Ġsoustavy": 7864,
      "Oba": 7865,
      "ĠbezpeÄįnost": 7866,
      "ĠTre": 7867,
      "ĠcÃŃrkvi": 7868,
      "ĠHabsbur": 7869,
      "hajÃŃ": 7870,
      "Ġinfe": 7871,
      "ĠumÃŃstÄĽna": 7872,
      "Film": 7873,
      "ÅĻskÃ½ch": 7874,
      "Ġturnaje": 7875,
      "xon": 7876,
      "ktem": 7877,
      "ĠamerickÃ¡": 7878,
      "ĠSuper": 7879,
      "ĠvÄĽtÅ¡inÄĽ": 7880,
      "ville": 7881,
      "Ġtechniky": 7882,
      "Ġprodej": 7883,
      "ĠSam": 7884,
      "vÃ¡ny": 7885,
      "Ġprosad": 7886,
      "ĠHora": 7887,
      "Ġsekun": 7888,
      "vyÅ¡Å¡ÃŃm": 7889,
      "ĠdanÃ©": 7890,
      "vÃ¡leÄį": 7891,
      "Ġhudbu": 7892,
      "jednodu": 7893,
      "Âłvesnici": 7894,
      "Âłh": 7895,
      "vÃŃti": 7896,
      "ĠspÃ¡": 7897,
      "ĠlÃ©Äį": 7898,
      "web": 7899,
      "Ġpruh": 7900,
      "ĠhrÃ¡Äįi": 7901,
      "ĠdruhÃ½m": 7902,
      "âĢľ).": 7903,
      "via": 7904,
      "ĠGru": 7905,
      "Ġdeska": 7906,
      "ĠBudÄĽjovice": 7907,
      "mec": 7908,
      "ĠIs": 7909,
      "HlavnÃŃm": 7910,
      "stili": 7911,
      "zovala": 7912,
      "ĠJÃ¡": 7913,
      "Ġvoli": 7914,
      "ĠRakouska": 7915,
      "ĠkÅĻiÅ¾ovat": 7916,
      "tnÃŃch": 7917,
      "ĠBlack": 7918,
      "ÃŃn": 7919,
      "Ġmulti": 7920,
      "pravnÃŃ": 7921,
      "viny": 7922,
      "uber": 7923,
      "Ġobjekty": 7924,
      "louÅ¾il": 7925,
      "ĠklasickÃ©": 7926,
      "dovÃ©": 7927,
      "ÄįÃŃk": 7928,
      "Ġhmotnosti": 7929,
      "gro": 7930,
      "ĠIm": 7931,
      "Ves": 7932,
      "kul": 7933,
      "ĠÃºro": 7934,
      "ĠÃºÄįel": 7935,
      "ĠsystÃ©mÅ¯": 7936,
      "ĠpÅĻekladu": 7937,
      "ĠdobrÃ©": 7938,
      "Geografie": 7939,
      "ĠRumun": 7940,
      "ĠÃºsek": 7941,
      "ÄįÃŃm": 7942,
      "ĠpotÅĻeba": 7943,
      "organi": 7944,
      "Âłu": 7945,
      "Ġpostavit": 7946,
      "ĠchrÃ¡mu": 7947,
      "ĠspodnÃŃ": 7948,
      "ĠStanis": 7949,
      "ĠtratÃŃ": 7950,
      "ĠnejvÄĽtÅ¡ÃŃch": 7951,
      "ĠoceÃ¡nu": 7952,
      "Ġpraxi": 7953,
      "ĠstejnÃ½": 7954,
      "ĠklÃŃ": 7955,
      "ĠvlastnictvÃŃ": 7956,
      "Ġvege": 7957,
      "nÄĽmecky": 7958,
      "omorf": 7959,
      "puÅ¡tÄĽn": 7960,
      "Å¾ivo": 7961,
      "ĠtÃ½my": 7962,
      "Ġpokus": 7963,
      "Ġada": 7964,
      "maÅ¾": 7965,
      "Ġdoslov": 7966,
      "Âłdob": 7967,
      "ĠstavÄĽ": 7968,
      "ĠknÃŃÅ¾ectvÃŃ": 7969,
      "ĠpÅĻedpoklÃ¡": 7970,
      "tvÃŃ": 7971,
      "Ġpsychi": 7972,
      "ĠzÃ¡stupce": 7973,
      "enne": 7974,
      "Ġhmotnost": 7975,
      "ĠzÅ¯stÃ¡vÃ¡": 7976,
      "ep": 7977,
      "Pak": 7978,
      "ĠvÃ½znamnÃ½m": 7979,
      "ĠLudvÃŃk": 7980,
      "Ġregion": 7981,
      "AC": 7982,
      "ĠprovedenÃŃ": 7983,
      "EN": 7984,
      "Ġpokou": 7985,
      "ĠÃģ": 7986,
      "Ġtenis": 7987,
      "cifi": 7988,
      "zivnÃŃ": 7989,
      "stavenÃŃ": 7990,
      "Ġpopisuje": 7991,
      "Ġnorm": 7992,
      "tisk": 7993,
      "ĠAtlan": 7994,
      "Ġsuper": 7995,
      "ink": 7996,
      "tilo": 7997,
      "ĠPamÃ¡t": 7998,
      "komuni": 7999,
      "ĠmÄĽstech": 8000,
      "gr": 8001,
      "Ġdebut": 8002,
      "hlasu": 8003,
      "Âłz": 8004,
      "ĠIg": 8005,
      "ĠvÃŃtÄĽ": 8006,
      "ĠseriÃ¡l": 8007,
      "ĠvÃ½chodnÃŃm": 8008,
      "ĠnabÃŃzÃŃ": 8009,
      "niny": 8010,
      "Ġcha": 8011,
      "ĠJohan": 8012,
      "ĠobÄįanskÃ©": 8013,
      "rÅ¯sta": 8014,
      "ĠBrna": 8015,
      "ĠnejvÃ½znamnÄĽjÅ¡ÃŃ": 8016,
      "ĠÅłum": 8017,
      "ĠrÅ¯znÃ½mi": 8018,
      "rskÃ©": 8019,
      "ĠsmÄĽr": 8020,
      "ĠhÅĻbitov": 8021,
      "Ġgala": 8022,
      "ĠsystÃ©mem": 8023,
      "Ġ(:": 8024,
      "aÅĻilo": 8025,
      "Å¯h": 8026,
      "Ġkont": 8027,
      "Ġorchest": 8028,
      "onym": 8029,
      "ĠDen": 8030,
      "ĠobsahujÃŃ": 8031,
      "DÄĽjiny": 8032,
      "ĠspoleÄįenstvÃŃ": 8033,
      "Ġaku": 8034,
      "tos": 8035,
      "Ġpodobu": 8036,
      "Ġvojsk": 8037,
      "Ã§": 8038,
      "ĠzÃ¡stav": 8039,
      "ĠfilmÅ¯": 8040,
      "ĠvedlejÅ¡ÃŃ": 8041,
      "ĠRam": 8042,
      "ĠvÃ½u": 8043,
      "lasti": 8044,
      "ĠÅĻadÃŃ": 8045,
      "ĠAfrice": 8046,
      "ĠNepomu": 8047,
      "Ġnesta": 8048,
      "ĠvÄĽÅĻÃŃ": 8049,
      "ĠtÅĻemi": 8050,
      "ĠSK": 8051,
      "anda": 8052,
      "Ġkonec": 8053,
      "Ġhodiny": 8054,
      "Ġneod": 8055,
      "ĠukonÄįil": 8056,
      "inÃ©": 8057,
      "ĠHus": 8058,
      "Ju": 8059,
      "ĠplÃ¡nu": 8060,
      "ĠCHKO": 8061,
      "sme": 8062,
      "Ġvylep": 8063,
      "ĠpÅĻÃŃzni": 8064,
      "ĠobÃ½": 8065,
      "vÄĽcen": 8066,
      "ĠmÄĽÅĻenÃŃ": 8067,
      "Ġdostat": 8068,
      "Âłpr": 8069,
      "vÄįetnÄĽ": 8070,
      "Nad": 8071,
      "Ġvan": 8072,
      "Ġvej": 8073,
      "Ġobjekt": 8074,
      "Ġfestivalu": 8075,
      "Ġeu": 8076,
      "Å½ivotopis": 8077,
      "ĠPrix": 8078,
      "ĠobvinÄĽ": 8079,
      "ĠnÃ¡zvy": 8080,
      "ĠvybÃŃ": 8081,
      "Å¡ÃŃn": 8082,
      "ĠUS": 8083,
      "ĠobjektÅ¯": 8084,
      "ĠpÅĻede": 8085,
      "×¨": 8086,
      "ĠvÃ¡lku": 8087,
      "ĠvystavÄĽ": 8088,
      "ĠvÄĽdy": 8089,
      "ĠstÃ¡tÄĽ": 8090,
      "ĠNositelÃ©": 8091,
      "ĠFried": 8092,
      "moni": 8093,
      "ĠrÅ¯st": 8094,
      "parte": 8095,
      "Ġministr": 8096,
      "Ġegypt": 8097,
      "ĠudÃ¡lostÃŃ": 8098,
      "Ġhar": 8099,
      "Ġvypad": 8100,
      "ĠMÄĽsÃŃ": 8101,
      "rik": 8102,
      "Ã«": 8103,
      "tkem": 8104,
      "ĠPel": 8105,
      "Ġminer": 8106,
      "tnÃ©": 8107,
      "Ã¡Å¡": 8108,
      "ĠdatabÃ¡": 8109,
      "konal": 8110,
      "ĠGalerie": 8111,
      "ĠMladÃ¡": 8112,
      "anÃ½m": 8113,
      "low": 8114,
      "ya": 8115,
      "anÃ©m": 8116,
      "mÃŃra": 8117,
      "mlad": 8118,
      "Ġobslu": 8119,
      "ĠpÅ¯vodnÃŃch": 8120,
      "ĠzvÃ½Å¡enÃŃ": 8121,
      "mb": 8122,
      "udÃŃ": 8123,
      "ĠpoÄįÃ¡": 8124,
      "Ġkoupil": 8125,
      "ĠnÃ¡klady": 8126,
      "Bu": 8127,
      "lane": 8128,
      "Ale": 8129,
      "Äįany": 8130,
      "Ġtexty": 8131,
      "ĠvesmÃŃr": 8132,
      "ĠautorÅ¯": 8133,
      "zovÃ¡ny": 8134,
      "Ġklad": 8135,
      "Ġeta": 8136,
      "Ġzahynu": 8137,
      "ĠÃī": 8138,
      "Ġzabez": 8139,
      "nÄĽl": 8140,
      "sona": 8141,
      "ĠÅ¾ÃŃ": 8142,
      "dio": 8143,
      "chodem": 8144,
      "ÂłD": 8145,
      "ĠÅ¡irokÃ©": 8146,
      "Ġmini": 8147,
      "ĠÅĻeditelem": 8148,
      "ĠrozsÃ¡hl": 8149,
      "Ġki": 8150,
      "Ġsingl": 8151,
      "ĠjihovÃ½chodnÃŃ": 8152,
      "ĠzpoÄįÃ¡tku": 8153,
      "ĠÄĮÃŃny": 8154,
      "ĠcÃŃl": 8155,
      "Ġca": 8156,
      "kli": 8157,
      "Ġprefe": 8158,
      "landu": 8159,
      "ĠKub": 8160,
      "ospod": 8161,
      "ĠAndre": 8162,
      "zn": 8163,
      "ĠSem": 8164,
      "Ġjezero": 8165,
      "ĠjinÃ½m": 8166,
      "ovec": 8167,
      "Ã¡ru": 8168,
      "Ġzbav": 8169,
      "ĠÅ¡vÃ½car": 8170,
      "ody": 8171,
      "Ġarchitektury": 8172,
      "ĠOp": 8173,
      "ĠÅĻi": 8174,
      "Ry": 8175,
      "vnÃ©": 8176,
      "Ġzbar": 8177,
      "Ġreag": 8178,
      "Ġpilot": 8179,
      "Ġmisi": 8180,
      "ĠdokÃ¡zal": 8181,
      "stickÃ½m": 8182,
      "ĠGene": 8183,
      "Ġportu": 8184,
      "Ce": 8185,
      "ĠmÃ½": 8186,
      "ĠkÅĻÃŃdla": 8187,
      "Ġkatastru": 8188,
      "ĠprÅ¯mÄĽru": 8189,
      "zoru": 8190,
      ".s": 8191,
      "ĠFotbal": 8192,
      "ĠmÃŃstem": 8193,
      "Ġrevoluci": 8194,
      "ĠposÃ¡dky": 8195,
      "nÃ¡ÅĻ": 8196,
      "chÃ¡zely": 8197,
      "wy": 8198,
      "ĠPress": 8199,
      "Ġnedostat": 8200,
      "ĠbÃŃlÃ©": 8201,
      "Pet": 8202,
      "ĠroÄįnÄĽ": 8203,
      "ÂłGe": 8204,
      "ĠhÅĻÃŃ": 8205,
      "Ġrozhra": 8206,
      "ĠpÃ³": 8207,
      "Âłka": 8208,
      "ĠSpojenÃ©": 8209,
      "Ġspou": 8210,
      "ĠdosÃ¡hnout": 8211,
      "ĠpÅĻedstavitel": 8212,
      "ovci": 8213,
      "ornÃŃ": 8214,
      "Âłok": 8215,
      "Ġvysla": 8216,
      "Ġproudu": 8217,
      "ĠBob": 8218,
      "ĠBlan": 8219,
      "Ġlesy": 8220,
      "rant": 8221,
      "ĠTem": 8222,
      "tÄĽzil": 8223,
      "DÅ¯vod": 8224,
      "Ġabs": 8225,
      "Ġodsouzen": 8226,
      "zÃ¡nÃŃ": 8227,
      "loru": 8228,
      "ĠMac": 8229,
      "ĠbojÅ¯": 8230,
      "ĠArch": 8231,
      "Ġsav": 8232,
      "Ġleg": 8233,
      "Ġplanety": 8234,
      "dami": 8235,
      "Ġosobnosti": 8236,
      "Ġkard": 8237,
      "Ġmak": 8238,
      "Ġhal": 8239,
      "ĠÅłu": 8240,
      "Ġsklo": 8241,
      "ĠstrÃ¡vil": 8242,
      "ĠfÃ¡zi": 8243,
      "ĠVen": 8244,
      "ĠdÃŃlem": 8245,
      "Ġdve": 8246,
      "ĠuspoÅĻÃ¡dÃ¡nÃŃ": 8247,
      "covÃ¡": 8248,
      "ĠsamosprÃ¡": 8249,
      "ĠInternational": 8250,
      "rup": 8251,
      "Ġvodu": 8252,
      "Ġvyboj": 8253,
      "Ġstali": 8254,
      "ĠmÃŃry": 8255,
      "ĠZemi": 8256,
      "ĠLadislav": 8257,
      "ĠpÅĻeve": 8258,
      "ture": 8259,
      "bram": 8260,
      "-Gro": 8261,
      "region": 8262,
      "ĠZlat": 8263,
      "emia": 8264,
      "ujÃŃcÃŃm": 8265,
      "uer": 8266,
      "ĠvolnÄĽ": 8267,
      "ĠvyuÅ¾ÃŃt": 8268,
      "Ġnavrhl": 8269,
      "byl": 8270,
      "ĠÅ¡Ã©f": 8271,
      "ĠsvÄĽd": 8272,
      "Ġpracuje": 8273,
      "ĠsvatÃ©": 8274,
      "ĠAngeles": 8275,
      "inÅ¯": 8276,
      "ĠPen": 8277,
      "-F": 8278,
      "Ġrekla": 8279,
      "Ġcykli": 8280,
      "ĠÃºplnÄĽ": 8281,
      "Ġletouny": 8282,
      "ĠRepubli": 8283,
      "ĠÄįÃŃn": 8284,
      "ID": 8285,
      "ĠslovnÃŃk": 8286,
      "hovÃ©": 8287,
      "Ġrozpad": 8288,
      "Ġmohut": 8289,
      "Jednalo": 8290,
      "ĠzÃŃskalo": 8291,
      "ovcÅ¯": 8292,
      "ĠzastÅĻe": 8293,
      "Ġsetka": 8294,
      "ĠEle": 8295,
      "ĠJindÅĻicha": 8296,
      "ida": 8297,
      "ĠkrÃ¡lovskÃ©": 8298,
      "VD": 8299,
      "ĠvÅ¡em": 8300,
      "otani": 8301,
      "ĠpoÄįÃ¡tkem": 8302,
      "ĠkapitÃ¡n": 8303,
      "ĠdÅĻeva": 8304,
      "Ġupo": 8305,
      "logickÃ©": 8306,
      "AP": 8307,
      "ĠvhodnÃ©": 8308,
      "ĠpromÄĽn": 8309,
      "cto": 8310,
      "Ġhes": 8311,
      "Ġmodelu": 8312,
      "Ġknihu": 8313,
      "ĠvÃ½hrad": 8314,
      "ĠÅłe": 8315,
      "ĠzemÅĻela": 8316,
      "ĠRoy": 8317,
      "ĠvynÃ¡": 8318,
      "ĠdÅĻÃŃvÄĽjÅ¡ÃŃ": 8319,
      "ĠkatolickÃ©": 8320,
      "rels": 8321,
      "Ġteorii": 8322,
      "ĠmÄĽÅ¡Å¥": 8323,
      "ebrej": 8324,
      "veld": 8325,
      "rol": 8326,
      "Ġpohledu": 8327,
      "ĠprÅ¯zkum": 8328,
      "Ġcentru": 8329,
      "ĠpodÃ¡": 8330,
      "Ġdesky": 8331,
      "ohou": 8332,
      "ĠMikro": 8333,
      "ĠpovaÅ¾ovÃ¡na": 8334,
      "Å¡im": 8335,
      "Ġzav": 8336,
      "ĠcÃŃle": 8337,
      "ĠnÃ¡vÅ¡tÄĽvnÃŃ": 8338,
      "pÄĽl": 8339,
      "sÃŃch": 8340,
      "ĠkoÅĻen": 8341,
      "Ġdiscip": 8342,
      "ĠpÃ©Äįe": 8343,
      "nar": 8344,
      "Ġlegi": 8345,
      "ĠMaria": 8346,
      "ĠStan": 8347,
      "ning": 8348,
      "ÂłV": 8349,
      "ĠpamÃ¡": 8350,
      "-R": 8351,
      "Ġjem": 8352,
      "Ġaktivity": 8353,
      "ĠÅłkoda": 8354,
      "Ġlokality": 8355,
      "Ġane": 8356,
      "kazujÃŃ": 8357,
      "ĠpohÅĻben": 8358,
      "Ġocas": 8359,
      "Ġkost": 8360,
      "ĠÄįeÅ¡tinÄĽ": 8361,
      "ĠMicro": 8362,
      "Ġhodnotu": 8363,
      "ĠÅ¾ele": 8364,
      "Ġgen": 8365,
      "ĠÄĮÃŃnÄĽ": 8366,
      "ĠpenÃŃ": 8367,
      "Let": 8368,
      "dcem": 8369,
      "kolÃŃ": 8370,
      "tekto": 8371,
      "Ġdostalo": 8372,
      "Ġaplikace": 8373,
      "ĠPoznÃ¡mky": 8374,
      "UT": 8375,
      "ĠvÃ½znamnou": 8376,
      "Ġobrat": 8377,
      "ĠVin": 8378,
      "Ġpav": 8379,
      "onÃ¡ÅĻ": 8380,
      "Ġznaky": 8381,
      "kos": 8382,
      "pisÅ¯": 8383,
      "ĠsilniÄįnÃŃ": 8384,
      "ĠIndie": 8385,
      "ĠstrÃ¡nka": 8386,
      "cht": 8387,
      "Ġdlouhou": 8388,
      "pus": 8389,
      "Ġoxi": 8390,
      "istÃ©": 8391,
      "ĠbÄĽÅ¾nÃ©": 8392,
      "ĠNobel": 8393,
      "ĠmlÃ¡deÅ¾": 8394,
      "ĠpamÃ¡tek": 8395,
      "ĠnejvÃ½": 8396,
      "ĠvodÄĽ": 8397,
      "hrels": 8398,
      "ĠKou": 8399,
      "kolik": 8400,
      "rad": 8401,
      "vilo": 8402,
      "chÃ¡zejÃŃ": 8403,
      "kala": 8404,
      "fal": 8405,
      "inec": 8406,
      "Ġopery": 8407,
      "StejnÄĽ": 8408,
      "Ġapo": 8409,
      "ĠjÃŃd": 8410,
      "ĠRou": 8411,
      "ĠÄĮÃ¡": 8412,
      "eneveld": 8413,
      "Ġatle": 8414,
      "ĠtvrdÃŃ": 8415,
      "Ġdemon": 8416,
      "Å¾ku": 8417,
      "gale": 8418,
      "ĠVikto": 8419,
      "ĠTex": 8420,
      "Ġknihovna": 8421,
      "Koncem": 8422,
      "ĠPhi": 8423,
      "-Groeneveld": 8424,
      "Ġuher": 8425,
      "ÂłGehrels": 8426,
      "urt": 8427,
      "ĠzmÄĽnÄĽ": 8428,
      "ĠpÅĻÃŃjmenÃŃ": 8429,
      "stÃ¡n": 8430,
      "rÃŃ": 8431,
      "ĠSlunce": 8432,
      "ĠnejdÅ¯leÅ¾itÄĽjÅ¡ÃŃ": 8433,
      "Ġoble": 8434,
      "jÃŃmavosti": 8435,
      "ami": 8436,
      "ĠdÄĽtstvÃŃ": 8437,
      "of": 8438,
      "lius": 8439,
      "ĠzranÄĽnÃŃ": 8440,
      "ĠAlÅ¾bÄĽ": 8441,
      "hrom": 8442,
      "Ġtal": 8443,
      "Âłza": 8444,
      "ĠJab": 8445,
      "ĠÃºmrtÃŃ": 8446,
      "ĠRusko": 8447,
      "isty": 8448,
      "NÄĽkdy": 8449,
      "ĠÅ½Äı": 8450,
      "ĠpÅĻÃŃm": 8451,
      "ĠCharles": 8452,
      "ĠnenÃ¡": 8453,
      "rovÃ½m": 8454,
      "Ġrovno": 8455,
      "mito": 8456,
      "Ġtvorby": 8457,
      "orem": 8458,
      "gon": 8459,
      "hvÄĽz": 8460,
      "Ġfederace": 8461,
      "ĠMiroslav": 8462,
      "Charak": 8463,
      "Ġval": 8464,
      "Ãºto": 8465,
      "Ġletounu": 8466,
      "ĠtaÅ¾enÃŃ": 8467,
      "Ġwww": 8468,
      "NÄĽkteÅĻÃŃ": 8469,
      "buje": 8470,
      "ĠtypÅ¯": 8471,
      "Ġdcerou": 8472,
      "ĠzÃ¡vodu": 8473,
      "ĠtvorbÄĽ": 8474,
      "ĠspoluprÃ¡ce": 8475,
      "Ġtane": 8476,
      "loÅ¾enÃŃ": 8477,
      "oli": 8478,
      "ĠsÃŃdla": 8479,
      "Ġsci": 8480,
      "ÅĻov": 8481,
      "Ġsrdce": 8482,
      "nuto": 8483,
      "ĠJames": 8484,
      "ĠÄĮeskoslovenÅ¡tÃŃ": 8485,
      "ĠmenÅ¡ÃŃch": 8486,
      "ĠsetkÃ¡nÃŃ": 8487,
      "ĠvÄĽcÃŃ": 8488,
      "zdory": 8489,
      "ĠNÃ¡rodnÃŃm": 8490,
      "og": 8491,
      "Ġkapela": 8492,
      "ĠmlÃ¡dÃŃ": 8493,
      "ras": 8494,
      "ĠpÅĻeru": 8495,
      "ĠmlÃ©": 8496,
      "ĠAcad": 8497,
      "Ġmusela": 8498,
      "terie": 8499,
      "ĠpovodÃŃ": 8500,
      "Å¡lenÃŃ": 8501,
      "ĠpaÅĻÃŃÅ¾": 8502,
      "teÄįnÃ©": 8503,
      "vajÃŃcÃŃch": 8504,
      "ĠvzdÄĽlÃ¡vÃ¡nÃŃ": 8505,
      "ĠOlympi": 8506,
      "ĠNÄĽmci": 8507,
      "ĠmÃŃstopÅĻed": 8508,
      "Ġnejstar": 8509,
      "ĠnemajÃŃ": 8510,
      "ĠsezonÄĽ": 8511,
      "ĠostrovÅ¯": 8512,
      "ĠzmiÅĪ": 8513,
      "tivnÃŃch": 8514,
      "loup": 8515,
      "ĠzahÃ¡jen": 8516,
      "ĠsetkÃ¡": 8517,
      "Ġsouboru": 8518,
      "rchie": 8519,
      "Ġdoba": 8520,
      "ÄĮasto": 8521,
      "ĠpojetÃŃ": 8522,
      "ĠhrÃ¡la": 8523,
      "Album": 8524,
      "ĠHlavnÃŃ": 8525,
      "lÃŃkÅ¯": 8526,
      "bach": 8527,
      "ĠopevnÄĽnÃŃ": 8528,
      "âĢĿ": 8529,
      "Ġvozidel": 8530,
      "ĠpenÃŃze": 8531,
      "ĠprospÄĽch": 8532,
      "ĠvyÅĻe": 8533,
      "IA": 8534,
      "ella": 8535,
      "Ã³zy": 8536,
      "Ġraket": 8537,
      "DR": 8538,
      "tat": 8539,
      "ĠpÅĻeÅ¡el": 8540,
      "ĠJedno": 8541,
      "ĠosvÄĽt": 8542,
      "netu": 8543,
      "ĠPalest": 8544,
      "ĠsÃ©ri": 8545,
      "rita": 8546,
      "Å¡tÄĽm": 8547,
      "ĠpÅĻenes": 8548,
      "ĠnÃ¡vrhu": 8549,
      "ĠOrgani": 8550,
      "ĠtÄĽsnÄĽ": 8551,
      "ĠmanÅ¾elky": 8552,
      "tÅ¡ÃŃ": 8553,
      "ĠokamÅ¾i": 8554,
      "ĠtratÄĽ": 8555,
      "jskÃ½": 8556,
      "Âłtom": 8557,
      "Ġhora": 8558,
      "Ġschod": 8559,
      "ĠAth": 8560,
      "PrÅ¯bÄĽh": 8561,
      "ĠAlbrech": 8562,
      "svÄĽ": 8563,
      "yd": 8564,
      "Ġopa": 8565,
      "ĠzaÅĻad": 8566,
      "menÅ¡ÃŃ": 8567,
      "Ġvyho": 8568,
      "ĠvlÃ¡k": 8569,
      "Ġpopulari": 8570,
      "Ġpsycho": 8571,
      "ĠÅłi": 8572,
      "ruÅ¾": 8573,
      "Ġbla": 8574,
      "iki": 8575,
      "Ġpozornost": 8576,
      "Ġindividu": 8577,
      "Ġzpro": 8578,
      "ĠzdravÃŃ": 8579,
      "era": 8580,
      "richa": 8581,
      "znat": 8582,
      "Ġpops": 8583,
      "enÃ¡ct": 8584,
      "ĠkÅĻesÅ¥anstvÃŃ": 8585,
      "ÄįnÃ½m": 8586,
      "ĠzahraniÄįnÃŃch": 8587,
      "Ġcar": 8588,
      "Ġasist": 8589,
      "Ġjedinou": 8590,
      "Ġfarnost": 8591,
      "Vedle": 8592,
      "ĠvÃ½hradnÄĽ": 8593,
      "ÂłnÃŃ": 8594,
      "mÄĽrnÃ½": 8595,
      "ĠvybavenÃŃ": 8596,
      "ĠzÃ¡vÄĽru": 8597,
      "ĠÃºÄįasti": 8598,
      "Ãį": 8599,
      "ĠodmÃŃ": 8600,
      "ĠBrod": 8601,
      "ktive": 8602,
      "ĠhrÃ¡Äįe": 8603,
      "ĠMalÃ©": 8604,
      "OH": 8605,
      "ĠuvaÅ¾": 8606,
      "ĠzÃ¡pase": 8607,
      "hoto": 8608,
      "Ġkomo": 8609,
      "ĠobjevujÃŃ": 8610,
      "Ġdceru": 8611,
      "Ġabsolu": 8612,
      "win": 8613,
      "ĠsmrtÃŃ": 8614,
      "ĠSilla": 8615,
      "ĠbÄĽhu": 8616,
      "ĠÅ¾ijÃŃ": 8617,
      "ovanÃ©m": 8618,
      "ĠpoÅ¡t": 8619,
      "kÃ¡zal": 8620,
      "ĠWeb": 8621,
      "lera": 8622,
      "Ġpolitika": 8623,
      "PoprvÃ©": 8624,
      "Ġkrize": 8625,
      "odob": 8626,
      "tenÃŃ": 8627,
      "ĠzajÃŃmav": 8628,
      "Å¯l": 8629,
      "ĠnÃ¡pad": 8630,
      "ĠnÃ¡d": 8631,
      "ĠLucembur": 8632,
      "ĠploÅ¡": 8633,
      "rajÃŃ": 8634,
      "ĠdolnÃŃ": 8635,
      "boli": 8636,
      "ĠJac": 8637,
      "Ġfunk": 8638,
      "ÄįnÃ©m": 8639,
      "ĠIzraele": 8640,
      "ĠÅ¡ÃŃÅĻ": 8641,
      "Ġvidi": 8642,
      "Å¡tejn": 8643,
      "ĠvÃ½voji": 8644,
      "pha": 8645,
      "ĠPÅ¯vod": 8646,
      "ĠzaznamenÃ¡": 8647,
      "ĠzabÃ½vÃ¡": 8648,
      "ĠtrenÃ©r": 8649,
      "ĠhovoÅĻÃŃ": 8650,
      "Ġjezer": 8651,
      "ĠvÃ½sad": 8652,
      "Ġrozli": 8653,
      "afri": 8654,
      "ĠtechnickÃ©": 8655,
      "hlou": 8656,
      "ĠarmÃ¡dÄĽ": 8657,
      "ĠprÃ½": 8658,
      "ĠomezenÃŃ": 8659,
      "ĠBit": 8660,
      "ĠpodstatÄĽ": 8661,
      "ĠtvÃ¡": 8662,
      "Ġfanou": 8663,
      "SouÄįÃ¡stÃŃ": 8664,
      "Ġkontrolu": 8665,
      "Ġsilnici": 8666,
      "telnÃ½ch": 8667,
      "ĠnÄĽhoÅ¾": 8668,
      "Ġnemocnice": 8669,
      "Mnoho": 8670,
      "ĠFilm": 8671,
      "Ġtlu": 8672,
      "ĠrychlostÃŃ": 8673,
      "ola": 8674,
      "pold": 8675,
      "ĠvÃ½Å¡ka": 8676,
      "ĠdÅ¯stojnÃŃ": 8677,
      "ĠSP": 8678,
      "Ġdigit": 8679,
      "Ġproslu": 8680,
      "Ġzajat": 8681,
      "Slov": 8682,
      "Ġhttps": 8683,
      "jako": 8684,
      "asÃŃ": 8685,
      "poÄįtu": 8686,
      "ĠVÃŃtÄĽz": 8687,
      "Ġplynu": 8688,
      "ĠmedicÃŃ": 8689,
      "Ġredu": 8690,
      "Ġato": 8691,
      "ĠleteckÃ©": 8692,
      "ĠOlomouci": 8693,
      "Ġodpor": 8694,
      "ĠRegi": 8695,
      "ĠSing": 8696,
      "ĠspisovatelÃ©": 8697,
      "ĠVod": 8698,
      "Ġhodnota": 8699,
      "losvÄĽt": 8700,
      "ĠrodiÄįe": 8701,
      "ĠOSN": 8702,
      "Ġpostavil": 8703,
      "ĠvÃ½znamnÃ½": 8704,
      "ĠÅĻeckÃ©": 8705,
      "ĠSnÄĽ": 8706,
      "Äįesky": 8707,
      "ĠDan": 8708,
      "ĠschvÃ¡": 8709,
      "ĠprohlÃŃ": 8710,
      "ĠuvÄĽ": 8711,
      "Ġstatus": 8712,
      "drÅ¾ela": 8713,
      "irtu": 8714,
      "ÅĻech": 8715,
      "Ġzpravodaj": 8716,
      "Ġdetek": 8717,
      "Sever": 8718,
      "ĠdvacÃ¡t": 8719,
      "ĠlÃ©ka": 8720,
      "rickÃ©": 8721,
      "Ġsubje": 8722,
      "natÃ©": 8723,
      "ĠvysokÃ½": 8724,
      "ĠUl": 8725,
      "ĠliteratuÅĻe": 8726,
      "Ã¡dy": 8727,
      "VlÃ¡": 8728,
      "Ġzbytky": 8729,
      "Ġusad": 8730,
      "ĠZla": 8731,
      "Ġprofil": 8732,
      "ild": 8733,
      "ĠdalÅ¡ÃŃho": 8734,
      "trÃ©m": 8735,
      "Ġteploty": 8736,
      "nÄĽji": 8737,
      "ÄįÃŃtÃ¡": 8738,
      "Ã©lka": 8739,
      "ĠpraÅ¾skÃ©ho": 8740,
      "Ġbyzant": 8741,
      "ĠPou": 8742,
      "Ġzabi": 8743,
      "olfa": 8744,
      "Pe": 8745,
      "mile": 8746,
      "dence": 8747,
      "ĠsdÃŃ": 8748,
      "ĠpravÃ©": 8749,
      "noj": 8750,
      "ĠponÄĽ": 8751,
      "ĠvystoupenÃŃ": 8752,
      "ĠpÅĻihlÃ¡": 8753,
      "elem": 8754,
      "ĠnaÅĻÃŃ": 8755,
      "Ġenerge": 8756,
      "ÅĪat": 8757,
      "Ġzr": 8758,
      "ranÅ¾": 8759,
      "chaj": 8760,
      "ĠvodnÃŃch": 8761,
      "ĠBerlÃŃnÄĽ": 8762,
      "Ġletadel": 8763,
      "ÂłE": 8764,
      "Ġodpad": 8765,
      "peÅĪ": 8766,
      "Ġschopnosti": 8767,
      "ĠumÃŃstÄĽnÃŃ": 8768,
      "PÅ¯sob": 8769,
      "nÃŃna": 8770,
      "Ġkre": 8771,
      "ĠMit": 8772,
      "Ġotro": 8773,
      "Ġhit": 8774,
      "stÅĻi": 8775,
      "ĠpoloÅ¾en": 8776,
      "Ġodchodu": 8777,
      "ĠÅ¾up": 8778,
      "ĠNovÃ©ho": 8779,
      "ĠÅ½ivo": 8780,
      "ĠkaÅ¾dÃ©ho": 8781,
      "Ġarchitekt": 8782,
      "ÄĹ": 8783,
      "ĠmÃ³": 8784,
      "inskÃ½": 8785,
      "Ġmiliony": 8786,
      "ĠâĢ¦": 8787,
      "Ġuniverz": 8788,
      "ĠStre": 8789,
      "Ġmuslim": 8790,
      "ĠpÃ¡du": 8791,
      "uÅ¾": 8792,
      "Ġteplota": 8793,
      "ÃŃc": 8794,
      "ĠKop": 8795,
      "Ġjuni": 8796,
      "ovar": 8797,
      "rist": 8798,
      "stvem": 8799,
      "ĠFar": 8800,
      "Franti": 8801,
      "ĠvyÅ¡": 8802,
      "ĠseverovÃ½chodnÄĽ": 8803,
      "ĠareÃ¡l": 8804,
      "ĠjÃ¡dra": 8805,
      "ĠarmÃ¡dou": 8806,
      "Foto": 8807,
      "ĠoÄįi": 8808,
      "inka": 8809,
      "ĠÅ½idÅ¯": 8810,
      "tomÄĽÅĻi": 8811,
      "ĠzÃ¡vislosti": 8812,
      "×Ļ×": 8813,
      "ĠEs": 8814,
      "ĠBrazÃŃ": 8815,
      "KaÅ¾dÃ½": 8816,
      "ĠmistrÅ¯": 8817,
      "ĠzvÃŃtÄĽzil": 8818,
      "Tam": 8819,
      "ĠPÃ¡": 8820,
      "nul": 8821,
      "ĠÅ¡kolnÃŃ": 8822,
      "ĠpoÅĻÃŃ": 8823,
      "ĠpÅĻedstavenÃŃ": 8824,
      "ĠvysokÃ½ch": 8825,
      "tÄĽÅ¾": 8826,
      "pickÃ©": 8827,
      "Ġportugal": 8828,
      "ĠJer": 8829,
      "pek": 8830,
      "Ġpodniku": 8831,
      "are": 8832,
      "Ã½n": 8833,
      "ĠSpr": 8834,
      "SvÃ©": 8835,
      "ĠsvÄĽtlo": 8836,
      "ĠpÅĻekva": 8837,
      "muÅ¾": 8838,
      "ĠvyznÃ¡nÃŃ": 8839,
      "ĠÄĮeskÃ½ch": 8840,
      "Ġkrajiny": 8841,
      ".âĢĵ": 8842,
      "ĠbunÄĽk": 8843,
      "stema": 8844,
      "Ġslab": 8845,
      "ĠznaÄįky": 8846,
      "ĠekonomickÃ©": 8847,
      "ĠNÄĽmcÅ¯": 8848,
      "Ġobran": 8849,
      "Âłokrese": 8850,
      "Ġolomou": 8851,
      "jenÃŃm": 8852,
      "Ġmilionu": 8853,
      "ount": 8854,
      "JiÅĻÃŃ": 8855,
      "KrÃ¡t": 8856,
      "ĠLea": 8857,
      "Ġhromad": 8858,
      "ĠÃºÄįely": 8859,
      "ĠdÃ©": 8860,
      "Ġdoda": 8861,
      "ĠJen": 8862,
      "heim": 8863,
      "cyklopedie": 8864,
      "ĠKromÄĽ": 8865,
      "ĠvÃ¡dÃŃ": 8866,
      "ÂłprÅ¯": 8867,
      "Ġlicen": 8868,
      "ovÃ¡leÄį": 8869,
      "ĠDNA": 8870,
      "Joh": 8871,
      "ĠvyÅ¡el": 8872,
      "Ġodve": 8873,
      "pech": 8874,
      "ĠKarl": 8875,
      "avi": 8876,
      "Ġusil": 8877,
      "ĠNational": 8878,
      "ĠrozhranÃŃ": 8879,
      "Ġukraj": 8880,
      "Bud": 8881,
      "ĠformÃ¡": 8882,
      "ĠdaÅĪ": 8883,
      "ĠAra": 8884,
      "Ġschopen": 8885,
      "Ġmuseli": 8886,
      "vkou": 8887,
      "metru": 8888,
      "ĠzÃ¡ko": 8889,
      "Ġnikdo": 8890,
      "ĠkonkrÃ©tnÃŃ": 8891,
      "rip": 8892,
      "ĠbritskÃ½": 8893,
      "galerie": 8894,
      "ĠGeografie": 8895,
      "ai": 8896,
      "hÃ½": 8897,
      "ĠRock": 8898,
      "ĠbudoucÃŃ": 8899,
      "ardy": 8900,
      "ĠBavor": 8901,
      "ĠDer": 8902,
      "ĠtentokrÃ¡t": 8903,
      "Bar": 8904,
      "ĠRober": 8905,
      "TV": 8906,
      "tie": 8907,
      "noucÃŃ": 8908,
      "RO": 8909,
      "Ġkonstruk": 8910,
      "ĠÃį": 8911,
      "dace": 8912,
      "Ġporazil": 8913,
      "Zna": 8914,
      "ĠdevÄĽt": 8915,
      "ĠletounÅ¯": 8916,
      "Å¡an": 8917,
      "razit": 8918,
      "lovÃ¡nÃŃ": 8919,
      "avÃ¡": 8920,
      "Ġstandard": 8921,
      "ĠkÃ¡men": 8922,
      "Ġodhal": 8923,
      "pora": 8924,
      "zovÃ©": 8925,
      "nÄĽt": 8926,
      "Ġtitulu": 8927,
      "ĠpÅĻipraven": 8928,
      "pÃ¡nÃŃ": 8929,
      "ĠopatÅĻenÃŃ": 8930,
      "naj": 8931,
      "nichov": 8932,
      "ĠpouÅ¾ÃŃval": 8933,
      "Ġprofesorem": 8934,
      "Ġfanta": 8935,
      "vÃ½m": 8936,
      "ĠzvÃŃtÄĽ": 8937,
      "rity": 8938,
      "ĠRych": 8939,
      "Ġobrazy": 8940,
      "ĠpomÄĽry": 8941,
      "ĠkonkrÃ©tnÄĽ": 8942,
      "stÃ¡le": 8943,
      "Ġnespo": 8944,
      "ĠÃºÄįastnil": 8945,
      "ĠcÃŃrkvÃŃ": 8946,
      "ĠpÅĻestoÅ¾e": 8947,
      "ac": 8948,
      "ĠArab": 8949,
      "Ġkandid": 8950,
      "Pre": 8951,
      "PÅĻÃŃklad": 8952,
      "wan": 8953,
      "ĠvlÃ¡dou": 8954,
      "osti": 8955,
      "Be": 8956,
      "dlÃŃ": 8957,
      "ĠCen": 8958,
      "ĠSlovin": 8959,
      "klen": 8960,
      "pin": 8961,
      "Ġalkoho": 8962,
      "ĠMusic": 8963,
      "ĠparlamentnÃŃch": 8964,
      "Ġpravidla": 8965,
      "Ġnekon": 8966,
      "Ġmostu": 8967,
      "ĠjihovÃ½chodnÄĽ": 8968,
      "nera": 8969,
      "ĠelektrickÃ©": 8970,
      "ĠanglickÃ½": 8971,
      "ĠBratisla": 8972,
      "vskÃ©": 8973,
      "ĠThomas": 8974,
      "EK": 8975,
      "ĠOtak": 8976,
      "ĠTÃ¡bor": 8977,
      "zaly": 8978,
      "vinu": 8979,
      "ĠzpÄĽvÃ¡k": 8980,
      "ĠATP": 8981,
      "Ġaktivit": 8982,
      "Ġnalez": 8983,
      "dÃ¡losti": 8984,
      "ĠÄįeskou": 8985,
      "Ġsloup": 8986,
      "ĠsnÄĽmovny": 8987,
      "ĠsprÃ¡vu": 8988,
      "ĠÅ¾idovskÃ©ho": 8989,
      "zatÃŃm": 8990,
      "ĠsilnÃ©": 8991,
      "Ġsebevra": 8992,
      "Ġzahrady": 8993,
      "ÂłPraze": 8994,
      "ĠTV": 8995,
      "znaÄįuje": 8996,
      "NavÃŃc": 8997,
      "itÃ¡": 8998,
      "Å¾enÃ¡": 8999,
      "ĠnesmÃŃ": 9000,
      "ritu": 9001,
      "ĠRak": 9002,
      "ĠÅ¾ivotnÃŃho": 9003,
      "stÃ¡nu": 9004,
      "ĠzaloÅ¾ili": 9005,
      "Å¡inou": 9006,
      "ĠstavbÄĽ": 9007,
      "presi": 9008,
      "ET": 9009,
      "sey": 9010,
      "ĠdrÃ¡hu": 9011,
      "Ġ*": 9012,
      "Ġexpe": 9013,
      "rio": 9014,
      "Ġkoncep": 9015,
      "Ġuniverzita": 9016,
      "ĠtÃ½mem": 9017,
      "Ġnemoci": 9018,
      "atur": 9019,
      "PoÄįet": 9020,
      "ĠfarÃ¡": 9021,
      "ĠJaponsku": 9022,
      "-T": 9023,
      "ĠKut": 9024,
      "ĠpÅĻÃŃÄį": 9025,
      "ĠÄĮeska": 9026,
      "ĠMichal": 9027,
      "lÃ©t": 9028,
      "ĠnÄĽmecky": 9029,
      "ĠoznÃ¡mil": 9030,
      "ĠrostoucÃŃ": 9031,
      "ĠzÃ¡livu": 9032,
      "ĠnemusÃŃ": 9033,
      "Ġdohod": 9034,
      "field": 9035,
      "ĠpremiÃ©": 9036,
      "Ġposkytuje": 9037,
      "ĠSlovenska": 9038,
      "Lid": 9039,
      "rana": 9040,
      "Ġzasa": 9041,
      "zof": 9042,
      "ĠpovaÅ¾uje": 9043,
      "ĠArgent": 9044,
      "lag": 9045,
      "Ġodtud": 9046,
      "ĠpÃŃsk": 9047,
      "ĠveÄįer": 9048,
      "dox": 9049,
      "vanÃ©ho": 9050,
      "Josef": 9051,
      "ĠSÃ¡zavou": 9052,
      "stÃ¡l": 9053,
      "Jeden": 9054,
      "ĠzÃ¡vÄĽre": 9055,
      "ĠJakub": 9056,
      "ĠLÃ©": 9057,
      "mout": 9058,
      "ĠjÃ¡": 9059,
      "Ġobli": 9060,
      "ĠSÃ½": 9061,
      "rey": 9062,
      "Ġhranic": 9063,
      "ĠprÅ¯vod": 9064,
      "ĠAustrÃ¡lie": 9065,
      "rium": 9066,
      "silo": 9067,
      "Ġdiag": 9068,
      "tnÃŃm": 9069,
      "ferenci": 9070,
      "ĠlÃ©Äįi": 9071,
      "ĠreÅ¾ie": 9072,
      "Kostel": 9073,
      "Ġzahrn": 9074,
      "Ġodvozen": 9075,
      "tum": 9076,
      "ĠtÄĽÅ¾kÃ©": 9077,
      "Ġpevnost": 9078,
      "ulturnÃŃ": 9079,
      "ĠpÃ¡d": 9080,
      "tickÃ½m": 9081,
      "ĠvyhrÃ¡la": 9082,
      "senÃŃ": 9083,
      "tÄĽl": 9084,
      "burk": 9085,
      "ht": 9086,
      "ĠCham": 9087,
      "ĠletnÃŃ": 9088,
      "ĠtvoÅĻen": 9089,
      "ĠztrÃ¡ty": 9090,
      "Ġrozvod": 9091,
      "Ġhudba": 9092,
      "mostat": 9093,
      "Ġnapl": 9094,
      "hujÃŃ": 9095,
      "ĠkrÃ¡li": 9096,
      "Ġpatro": 9097,
      "ĠStÅĻedoÄįe": 9098,
      "Ġpolicie": 9099,
      "ĠMed": 9100,
      "ĠBill": 9101,
      "ĠÅĻekl": 9102,
      "ĠvytvoÅĻen": 9103,
      "Ġnit": 9104,
      "Å¾et": 9105,
      "ĠODS": 9106,
      "ĠvysÃŃlÃ¡nÃŃ": 9107,
      "ovskÃ¡": 9108,
      "ĠvÃ¡lkou": 9109,
      "ĠtvoÅĻili": 9110,
      "ĠjedinÃ©": 9111,
      "Å¡ÃŃÅĻenÃŃ": 9112,
      "Ġokruh": 9113,
      "gg": 9114,
      "soft": 9115,
      "ĠtÅĻet": 9116,
      "ĠobÄĽtÃŃ": 9117,
      "ĠzahÃ¡jena": 9118,
      "stÅĻele": 9119,
      "ĠstranÃ¡ch": 9120,
      ".\"": 9121,
      "Ġbur": 9122,
      "ĠvyvÃŃ": 9123,
      "diÃŃ": 9124,
      "vrat": 9125,
      "ĠbudovÄĽ": 9126,
      "ĠokolnÃŃ": 9127,
      "ĠtisÃŃci": 9128,
      "IC": 9129,
      "ĠzÃ¡vodÄĽ": 9130,
      "DruhÃ¡": 9131,
      "skij": 9132,
      "lami": 9133,
      "dÄĽlÃ¡": 9134,
      "ĠDruh": 9135,
      "ĠpohÅĻe": 9136,
      "Ġcestou": 9137,
      "ĠpouÅ¾ÃŃvÃ¡n": 9138,
      "Ġpape": 9139,
      "ĠuspoÅĻÃ¡d": 9140,
      "ĠDy": 9141,
      "ĠlÃ©pe": 9142,
      "Ġkluby": 9143,
      "ĠanglickÃ©ho": 9144,
      "ĠzÅĻÃŃzenÃŃ": 9145,
      "Äįnost": 9146,
      "metr": 9147,
      "louho": 9148,
      "ĠoprÃ¡": 9149,
      "Ġpoloostro": 9150,
      "ĠSovÄĽtskÃ©ho": 9151,
      "niky": 9152,
      "bice": 9153,
      "ĠnÃ¡boÅ¾enskÃ©": 9154,
      "hraniÄįnÃŃ": 9155,
      "HrÃ¡": 9156,
      "JmÃ©no": 9157,
      "Ġzastoup": 9158,
      "ĠpÅĻÃŃtel": 9159,
      "ĠsvÄĽtovou": 9160,
      "lÃ¡ch": 9161,
      "Ġvul": 9162,
      "ĠzvÄĽ": 9163,
      "Ã¡tÅ¯": 9164,
      "Ġlabora": 9165,
      "Å¾nost": 9166,
      "slez": 9167,
      "ĠdosÃ¡hla": 9168,
      "alizace": 9169,
      "Jen": 9170,
      "ĠpÅĻÃŃspÄĽ": 9171,
      "ĠitalskÃ©": 9172,
      "Ġdvora": 9173,
      "Ġlesa": 9174,
      "Ġdeparte": 9175,
      "Os": 9176,
      "ovskÃ©ho": 9177,
      "Ġznaku": 9178,
      "Ġobyvatelstvo": 9179,
      "dis": 9180,
      "ĠMilan": 9181,
      "ĠhospodÃ¡ÅĻstvÃŃ": 9182,
      "ĠpÅĻedlo": 9183,
      "ĠsociÃ¡lnÃŃch": 9184,
      "EL": 9185,
      "ĠsprÃ¡va": 9186,
      "ĠzahÃ¡jil": 9187,
      "ĠzÃ¡stupci": 9188,
      "pson": 9189,
      "Ġpodepsal": 9190,
      "ĠUK": 9191,
      "ĠstÅĻet": 9192,
      "ĠcelkovÄĽ": 9193,
      "Ġvysoce": 9194,
      "ĠtÃ¡bo": 9195,
      "ĠStavby": 9196,
      "ĠOkres": 9197,
      "Ġplyn": 9198,
      "stilo": 9199,
      "ĠTan": 9200,
      "Ġdou": 9201,
      "Ġintera": 9202,
      "Ġinstal": 9203,
      "ĠpozÅ¯stat": 9204,
      "FC": 9205,
      "ĠÅĺÃ¡d": 9206,
      "ĠpÅĻÃŃrodÄĽ": 9207,
      "rnu": 9208,
      "arch": 9209,
      "ĠBon": 9210,
      "ĠnÃ¡s": 9211,
      "tisÃŃ": 9212,
      "Ġele": 9213,
      "SSD": 9214,
      "VÃ¡c": 9215,
      "hlu": 9216,
      "ĠstÃ¡tnÃŃch": 9217,
      "Ġpodoby": 9218,
      "ĠTor": 9219,
      "kovÃ¡na": 9220,
      "stad": 9221,
      "cil": 9222,
      "ĠzaÅĻÃŃ": 9223,
      "ĠpÅĻekladatel": 9224,
      "ÅĻskÃ©ho": 9225,
      "gace": 9226,
      "ĠdesetiletÃŃ": 9227,
      "ĠWolf": 9228,
      "CD": 9229,
      "hÃ¡ch": 9230,
      "Ġkultura": 9231,
      "Ġfra": 9232,
      "TS": 9233,
      "ovitÃ½ch": 9234,
      "jka": 9235,
      "tovÃ¡": 9236,
      "Ġkolej": 9237,
      "cker": 9238,
      "kolo": 9239,
      "dape": 9240,
      "ther": 9241,
      "ĠCel": 9242,
      "ĠlidskÃ½ch": 9243,
      "pÃ¡ch": 9244,
      "ĠblÃŃzko": 9245,
      "cs": 9246,
      "Ġrozpo": 9247,
      "ĠÅła": 9248,
      "ĠAlf": 9249,
      "ĠmoÅ¾nostÃŃ": 9250,
      "ĠnejdÅĻÃŃve": 9251,
      "ĠdefinitivnÄĽ": 9252,
      "ĠdosavadnÃŃ": 9253,
      "Aby": 9254,
      "Ġzub": 9255,
      "Ġline": 9256,
      "ĠpouÅ¾ÃŃvÃ¡nÃŃ": 9257,
      "ĠinÅ¾enÃ½r": 9258,
      "ĠKel": 9259,
      "ĠpÅĻile": 9260,
      "ĠvyuÅ¾it": 9261,
      "Ġtakz": 9262,
      "ĠroÄįnÃŃk": 9263,
      "Ã´": 9264,
      "Ġmise": 9265,
      "ĠobÄĽma": 9266,
      "ĠsrÃ¡Å¾": 9267,
      "Ġsval": 9268,
      "Ġodst": 9269,
      "dikt": 9270,
      "Naopak": 9271,
      "ĠÄįtr": 9272,
      "isa": 9273,
      "Ġnoviny": 9274,
      "ĠspoleÄįnÃ©": 9275,
      "ĠtrÃ©n": 9276,
      "ts": 9277,
      "ĠpronÃ¡sled": 9278,
      "ĠÄįten": 9279,
      "Ġvynika": 9280,
      "datelem": 9281,
      "ĠFir": 9282,
      "ĠArno": 9283,
      "ĠpÅĻestup": 9284,
      "Ġkosmona": 9285,
      "hned": 9286,
      "ĠArchi": 9287,
      "ĠNovÃ©m": 9288,
      "ĠnÄĽmeckÃ¡": 9289,
      "PÅĻÃŃrodnÃŃ": 9290,
      "Skupina": 9291,
      "ĠStarÃ©": 9292,
      "ĠvzdÃ¡lenost": 9293,
      "Ġtepel": 9294,
      "Ġkonal": 9295,
      "gia": 9296,
      "ÂłdalÅ¡ÃŃ": 9297,
      "naje": 9298,
      "ÄĮer": 9299,
      "ĠudÃ¡lost": 9300,
      "ÂłrÃ¡": 9301,
      "ĠNA": 9302,
      "Å¾ice": 9303,
      "ĠhereÄįka": 9304,
      "socia": 9305,
      "schop": 9306,
      "ĠpÅĻil": 9307,
      "Ġsamice": 9308,
      "ĠrybnÃŃk": 9309,
      "erre": 9310,
      "zÃŃn": 9311,
      "formati": 9312,
      "ĠnachÃ¡zejÃŃcÃŃ": 9313,
      "ĠproblÃ©mÅ¯": 9314,
      "vanÃ¡ct": 9315,
      "the": 9316,
      "yo": 9317,
      "ĠrozklÃ¡dÃ¡": 9318,
      "ĠRed": 9319,
      "ĠâĨ": 9320,
      "rky": 9321,
      "ĠdÅ¯vÄĽ": 9322,
      "ĠzemÄĽdÄĽlskÃ©": 9323,
      "ĠmlÃ½n": 9324,
      "For": 9325,
      "ovanÄĽ": 9326,
      "Ra": 9327,
      "celo": 9328,
      "ĠHum": 9329,
      "livÄĽ": 9330,
[...]
